{
  "version": "1.0",
  "truncation": null,
  "padding": null,
  "added_tokens": [
    {
      "id": 0,
      "content": "<pad>",
      "single_word": false,
      "lstrip": false,
      "rstrip": false,
      "normalized": false,
      "special": true
    },
    {
      "id": 1,
      "content": "<unk>",
      "single_word": false,
      "lstrip": false,
      "rstrip": false,
      "normalized": false,
      "special": true
    },
    {
      "id": 2,
      "content": "<bos>",
      "single_word": false,
      "lstrip": false,
      "rstrip": false,
      "normalized": false,
      "special": true
    },
    {
      "id": 3,
      "content": "<eos>",
      "single_word": false,
      "lstrip": false,
      "rstrip": false,
      "normalized": false,
      "special": true
    },
    {
      "id": 4,
      "content": "<user>",
      "single_word": false,
      "lstrip": false,
      "rstrip": false,
      "normalized": false,
      "special": true
    },
    {
      "id": 5,
      "content": "<assistant>",
      "single_word": false,
      "lstrip": false,
      "rstrip": false,
      "normalized": false,
      "special": true
    },
    {
      "id": 6,
      "content": "<think>",
      "single_word": false,
      "lstrip": false,
      "rstrip": false,
      "normalized": false,
      "special": true
    },
    {
      "id": 7,
      "content": "</think>",
      "single_word": false,
      "lstrip": false,
      "rstrip": false,
      "normalized": false,
      "special": true
    }
  ],
  "normalizer": null,
  "pre_tokenizer": {
    "type": "ByteLevel",
    "add_prefix_space": true,
    "trim_offsets": true,
    "use_regex": true
  },
  "post_processor": null,
  "decoder": {
    "type": "ByteLevel",
    "add_prefix_space": true,
    "trim_offsets": true,
    "use_regex": true
  },
  "model": {
    "type": "BPE",
    "dropout": null,
    "unk_token": "<unk>",
    "continuing_subword_prefix": null,
    "end_of_word_suffix": null,
    "fuse_unk": false,
    "byte_fallback": false,
    "ignore_merges": false,
    "vocab": {
      "<pad>": 0,
      "<unk>": 1,
      "<bos>": 2,
      "<eos>": 3,
      "<user>": 4,
      "<assistant>": 5,
      "<think>": 6,
      "</think>": 7,
      "!": 8,
      "\"": 9,
      "#": 10,
      "$": 11,
      "%": 12,
      "&": 13,
      "'": 14,
      "(": 15,
      ")": 16,
      "*": 17,
      "+": 18,
      ",": 19,
      "-": 20,
      ".": 21,
      "/": 22,
      "0": 23,
      "1": 24,
      "2": 25,
      "3": 26,
      "4": 27,
      "5": 28,
      "6": 29,
      "7": 30,
      "8": 31,
      "9": 32,
      ":": 33,
      ";": 34,
      "<": 35,
      "=": 36,
      ">": 37,
      "?": 38,
      "@": 39,
      "A": 40,
      "B": 41,
      "C": 42,
      "D": 43,
      "E": 44,
      "F": 45,
      "G": 46,
      "H": 47,
      "I": 48,
      "J": 49,
      "K": 50,
      "L": 51,
      "M": 52,
      "N": 53,
      "O": 54,
      "P": 55,
      "Q": 56,
      "R": 57,
      "S": 58,
      "T": 59,
      "U": 60,
      "V": 61,
      "W": 62,
      "X": 63,
      "Y": 64,
      "Z": 65,
      "[": 66,
      "\\": 67,
      "]": 68,
      "^": 69,
      "_": 70,
      "`": 71,
      "a": 72,
      "b": 73,
      "c": 74,
      "d": 75,
      "e": 76,
      "f": 77,
      "g": 78,
      "h": 79,
      "i": 80,
      "j": 81,
      "k": 82,
      "l": 83,
      "m": 84,
      "n": 85,
      "o": 86,
      "p": 87,
      "q": 88,
      "r": 89,
      "s": 90,
      "t": 91,
      "u": 92,
      "v": 93,
      "w": 94,
      "x": 95,
      "y": 96,
      "z": 97,
      "{": 98,
      "|": 99,
      "}": 100,
      "~": 101,
      "¡": 102,
      "¢": 103,
      "£": 104,
      "¤": 105,
      "¥": 106,
      "¦": 107,
      "§": 108,
      "¨": 109,
      "©": 110,
      "ª": 111,
      "«": 112,
      "¬": 113,
      "®": 114,
      "¯": 115,
      "°": 116,
      "±": 117,
      "²": 118,
      "³": 119,
      "´": 120,
      "µ": 121,
      "¶": 122,
      "·": 123,
      "¸": 124,
      "¹": 125,
      "º": 126,
      "»": 127,
      "¼": 128,
      "½": 129,
      "¾": 130,
      "¿": 131,
      "Â": 132,
      "Ã": 133,
      "Ä": 134,
      "Å": 135,
      "Ç": 136,
      "È": 137,
      "É": 138,
      "Ê": 139,
      "Ë": 140,
      "Ì": 141,
      "Î": 142,
      "Ï": 143,
      "Ð": 144,
      "Ñ": 145,
      "Ò": 146,
      "Ó": 147,
      "Ø": 148,
      "Ù": 149,
      "à": 150,
      "á": 151,
      "â": 152,
      "ã": 153,
      "ä": 154,
      "å": 155,
      "æ": 156,
      "ç": 157,
      "è": 158,
      "é": 159,
      "ê": 160,
      "ë": 161,
      "ì": 162,
      "í": 163,
      "î": 164,
      "ï": 165,
      "ð": 166,
      "Ą": 167,
      "ć": 168,
      "Ĉ": 169,
      "ĉ": 170,
      "Ċ": 171,
      "Č": 172,
      "č": 173,
      "Ĕ": 174,
      "ė": 175,
      "ě": 176,
      "Ĝ": 177,
      "Ğ": 178,
      "Ġ": 179,
      "ġ": 180,
      "Ģ": 181,
      "ģ": 182,
      "Ĥ": 183,
      "ĥ": 184,
      "Ħ": 185,
      "ħ": 186,
      "Ĩ": 187,
      "ĩ": 188,
      "Ī": 189,
      "ī": 190,
      "Ĭ": 191,
      "ĭ": 192,
      "Į": 193,
      "į": 194,
      "İ": 195,
      "ı": 196,
      "Ĳ": 197,
      "ĳ": 198,
      "Ĵ": 199,
      "ĵ": 200,
      "Ķ": 201,
      "ķ": 202,
      "ĸ": 203,
      "Ĺ": 204,
      "ĺ": 205,
      "Ļ": 206,
      "ļ": 207,
      "Ľ": 208,
      "ľ": 209,
      "Ŀ": 210,
      "ŀ": 211,
      "Ł": 212,
      "ł": 213,
      "Ń": 214,
      "ï¼": 215,
      "ä¸": 216,
      "ï¼Į": 217,
      "çļ": 218,
      "çļĦ": 219,
      "ãĢ": 220,
      "äº": 221,
      "ãĢĤ": 222,
      "ä»": 223,
      "è¿": 224,
      "åı": 225,
      "å¤": 226,
      "âĢ": 227,
      "æĺ": 228,
      "æľ": 229,
      "ä¸Ģ": 230,
      "åľ": 231,
      "ä½": 232,
      "æĺ¯": 233,
      "ä¹": 234,
      "åħ": 235,
      "åĪ": 236,
      "åĲ": 237,
      "æĪ": 238,
      "å®": 239,
      "å°": 240,
      "äºĨ": 241,
      "è¯": 242,
      "ä¸į": 243,
      "è¿Ļ": 244,
      "åľ¨": 245,
      "æĸ": 246,
      "ç»": 247,
      "æĿ": 248,
      "çĶ": 249,
      "æĹ": 250,
      "åĬ": 251,
      "æľī": 252,
      "æī": 253,
      "åĩ": 254,
      "äºº": 255,
      "ä¸ª": 256,
      "ĥ½": 257,
      "å¥": 258,
      "å¾": 259,
      "åŃ": 260,
      "âĢľ": 261,
      "åį": 262,
      "âĢĿ": 263,
      "ä¼": 264,
      "å¹": 265,
      "åĴ": 266,
      "æĪĳ": 267,
      "èĢ": 268,
      "æŃ": 269,
      "å¼": 270,
      "åĽ": 271,
      "è®": 272,
      "éĩ": 273,
      "åĴĮ": 274,
      "åĨ": 275,
      "ä»ĸ": 276,
      "çľ": 277,
      "å·": 278,
      "ä»¥": 279,
      "å¸": 280,
      "éĹ": 281,
      "åº": 282,
      "åı¯": 283,
      "æĿ¥": 284,
      "éģ": 285,
      "æķ": 286,
      "çİ": 287,
      "éĢ": 288,
      "æĥ": 289,
      "æĢ": 290,
      "ä¸Ń": 291,
      "è§": 292,
      "ä¸Ĭ": 293,
      "åĪ°": 294,
      "èµ": 295,
      "è¡": 296,
      "å¿": 297,
      "ä»¬": 298,
      "å¯": 299,
      "å¤§": 300,
      "ï¼ļ": 301,
      "èĥ½": 302,
      "æ²": 303,
      "éĤ": 304,
      "ä¸ĭ": 305,
      "ãĢģ": 306,
      "éĿ": 307,
      "ä½ł": 308,
      "å½": 309,
      "åİ": 310,
      "çī": 311,
      "ä¸º": 312,
      "¦ģ": 313,
      "éĤ£": 314,
      "æŀ": 315,
      "èĩ": 316,
      "æĦ": 317,
      "åĩº": 318,
      "éģĵ": 319,
      "çĿ": 320,
      "æł": 321,
      "è¦ģ": 322,
      "çĽ": 323,
      "ç§": 324,
      "å¦": 325,
      "å°±": 326,
      "æĬ": 327,
      "ï¼Ł": 328,
      "æ°": 329,
      "éĻ": 330,
      "çĿĢ": 331,
      "ä¹Ł": 332,
      "âĢ¦": 333,
      "åĳ": 334,
      "æĹ¶": 335,
      "åľ°": 336,
      "æĭ": 337,
      "çĦ": 338,
      "å±": 339,
      "è¾": 340,
      "åĵ": 341,
      "åŃĲ": 342,
      "åī": 343,
      "æ³": 344,
      "ä¹ĭ": 345,
      "æİ": 346,
      "å¥½": 347,
      "åĮ": 348,
      "çĦ¶": 349,
      "æĸ¹": 350,
      "é¢": 351,
      "æĻ": 352,
      "ĠâĢľ": 353,
      "ä¼ļ": 354,
      "å¦Ĥ": 355,
      "è¯´": 356,
      "è¿ĩ": 357,
      "åĲİ": 358,
      "æ¯": 359,
      "äºĽ": 360,
      "ä¹Ī": 361,
      "å¤©": 362,
      "çŃ": 363,
      "çĶŁ": 364,
      "éĥ½": 365,
      "çº": 366,
      "ä¸Ģä¸ª": 367,
      "èĩª": 368,
      "å¯¹": 369,
      "éĺ": 370,
      "çĤ": 371,
      "çĶ¨": 372,
      "æ²¡": 373,
      "ãĢĤâĢĿ": 374,
      "åı¯ä»¥": 375,
      "è½": 376,
      "ç¬": 377,
      "æĪĲ": 378,
      "è¿ĺ": 379,
      "æµ": 380,
      "å¤ļ": 381,
      "ä¿": 382,
      "ï¼ģ": 383,
      "çľĭ": 384,
      "ä¾": 385,
      "è´": 386,
      "æĮ": 387,
      "å¾Ĺ": 388,
      "å°ı": 389,
      "æĶ": 390,
      "æ¸": 391,
      "æĽ": 392,
      "äºİ": 393,
      "æı": 394,
      "æ¬": 395,
      "éĿ¢": 396,
      "èº": 397,
      "ç«": 398,
      "ç®": 399,
      "åĬĽ": 400,
      "çŁ": 401,
      "èĭ": 402,
      "èĢĮ": 403,
      "çİ°": 404,
      "é£": 405,
      "è·": 406,
      "å£": 407,
      "åİ»": 408,
      "æīĭ": 409,
      "è¢": 410,
      "ç¥": 411,
      "èī": 412,
      "èº«": 413,
      "èµ·": 414,
      "è¡Į": 415,
      "æĸĩ": 416,
      "å¿ĥ": 417,
      "æľĢ": 418,
      "æĥ³": 419,
      "çĤ¹": 420,
      "çĲ": 421,
      "åıª": 422,
      "å¼Ģ": 423,
      "éľ": 424,
      "å¹³": 425,
      "åĢ": 426,
      "å°Ĩ": 427,
      "éĩĮ": 428,
      "æ´": 429,
      "å¤´": 430,
      "æĦı": 431,
      "æŃ¤": 432,
      "åŁ": 433,
      "çŃī": 434,
      "--": 435,
      "åĬ¨": 436,
      "æĥħ": 437,
      "åħ¶": 438,
      "å®¶": 439,
      "åĪĨ": 440,
      "åīį": 441,
      "æ±": 442,
      "æ°Ķ": 443,
      "éļ": 444,
      "çģ": 445,
      "å½ĵ": 446,
      "è°": 447,
      "ï¼ļâĢľ": 448,
      "åģ": 449,
      "å¹´": 450,
      "çī©": 451,
      "æķ°": 452,
      "æŀľ": 453,
      "åıĳ": 454,
      "æĤ": 455,
      "äºĭ": 456,
      "éĹ´": 457,
      "âĢ¦âĢ¦": 458,
      "ç§į": 459,
      "æĹł": 460,
      "æ³ķ": 461,
      "èĢħ": 462,
      "æľ¬": 463,
      "éķ": 464,
      "é«": 465,
      "æīĢ": 466,
      "æģ": 467,
      "é«ĺ": 468,
      "éĹ®": 469,
      "ç»ı": 470,
      "æį": 471,
      "ç©": 472,
      "å¾Ī": 473,
      "çķ": 474,
      "èĦ": 475,
      "ç±": 476,
      "è¢«": 477,
      "è¶": 478,
      "ä½ľ": 479,
      "å®ļ": 480,
      "ç»Ļ": 481,
      "æĦŁ": 482,
      "æĽ´": 483,
      "ç¥ŀ": 484,
      "èĲ": 485,
      "ä½Ĩ": 486,
      "èī²": 487,
      "é»": 488,
      "çĻ": 489,
      "èĬ": 490,
      "æıĲ": 491,
      "æĪĳä»¬": 492,
      "ä½ĵ": 493,
      "åĲĮ": 494,
      "å®ĥ": 495,
      "åĿ": 496,
      "å®ŀ": 497,
      "ä»Ģ": 498,
      "éĽ": 499,
      "ä¸İ": 500,
      "å·²": 501,
      "è¿Ľ": 502,
      "ä»Ģä¹Ī": 503,
      "å§": 504,
      "ä½į": 505,
      "ä¸¤": 506,
      "åĽł": 507,
      "è®©": 508,
      "æ·": 509,
      "ç¾": 510,
      "èĤ": 511,
      "å¹¶": 512,
      "çĥ": 513,
      "éķ¿": 514,
      "çĪ": 515,
      "åĸ": 516,
      "åŃ¦": 517,
      "åħ³": 518,
      "èĢģ": 519,
      "è¿Ļä¸ª": 520,
      "åħ¥": 521,
      "åĽŀ": 522,
      "è¾¹": 523,
      "é¢ĺ": 524,
      "çŁ¥": 525,
      "åº¦": 526,
      "ä»İ": 527,
      "ä¸»": 528,
      "éĩı": 529,
      "çĭ": 530,
      "å¤ĸ": 531,
      "å·±": 532,
      "æĪĺ": 533,
      "ç½": 534,
      "ä»ĸä»¬": 535,
      "çľ¼": 536,
      "é¡": 537,
      "åĲį": 538,
      "éĶ": 539,
      "éľĢ": 540,
      "åķ": 541,
      "å¥¹": 542,
      "æĪĸ": 543,
      "æĺİ": 544,
      "èĩªå·±": 545,
      "æŁ": 546,
      "æł·": 547,
      "æŃ£": 548,
      "çľŁ": 549,
      "åĬł": 550,
      "å¢": 551,
      "æ¯Ķ": 552,
      "éĥ": 553,
      "åĵģ": 554,
      "å£°": 555,
      "æ²¡æľī": 556,
      "è¯Ŀ": 557,
      "å¸¸": 558,
      "ï¼ŁâĢĿ": 559,
      "èĭı": 560,
      "å±±": 561,
      "åĩł": 562,
      "èĻ": 563,
      "ä¸ī": 564,
      "ç¨": 565,
      "åħī": 566,
      "æ°´": 567,
      "æ¬¡": 568,
      "çĲĨ": 569,
      "æľº": 570,
      "åı£": 571,
      "èĪ": 572,
      "æīĵ": 573,
      "éª": 574,
      "ç¬ĳ": 575,
      "éĩį": 576,
      "æĤ¨": 577,
      "ç®Ĺ": 578,
      "è¡¨": 579,
      "çł": 580,
      "ç¼": 581,
      "æĢ§": 582,
      "ç³": 583,
      "èį": 584,
      "éĻĪ": 585,
      "åºĶ": 586,
      "ç´": 587,
      "åĨħ": 588,
      "è¯·": 589,
      "éĢļ": 590,
      "æ¶": 591,
      "çĽ¸": 592,
      "å®ī": 593,
      "ç±»": 594,
      "èĥ": 595,
      "å°ĳ": 596,
      "è§£": 597,
      "éľĢè¦ģ": 598,
      "åĮĸ": 599,
      "é¦": 600,
      "è¯Ń": 601,
      "éĴ": 602,
      "åĲĳ": 603,
      "æĻĵ": 604,
      "éħ": 605,
      "äºĨä¸Ģ": 606,
      "èģ": 607,
      "æĸ°": 608,
      "æ»": 609,
      "åĲĪ": 610,
      "çİĭ": 611,
      "ç©º": 612,
      "éŃ": 613,
      "åĨį": 614,
      "åı¥": 615,
      "å¼º": 616,
      "å·²ç»ı": 617,
      "èĭıæĻĵ": 618,
      "éŁ": 619,
      "ç¡": 620,
      "å½±": 621,
      "æ®": 622,
      "å¤ª": 623,
      "ä½¿": 624,
      "çĮ": 625,
      "æĺŁ": 626,
      "åľº": 627,
      "ç¾İ": 628,
      "åħ¬": 629,
      "åŁİ": 630,
      "æį®": 631,
      "Â·": 632,
      "éĥ¨": 633,
      "è£": 634,
      "ç²": 635,
      "ä½ķ": 636,
      "ä¸įæĺ¯": 637,
      "èµ°": 638,
      "é£İ": 639,
      "èİ": 640,
      "ä¸ĸ": 641,
      "æŃ»": 642,
      "åıĺ": 643,
      "ç¤": 644,
      "å¦Ĥæŀľ": 645,
      "ç¦": 646,
      "çĻ½": 647,
      "çķĮ": 648,
      "å¥½çļĦ": 649,
      "è¿ĻäºĽ": 650,
      "æīį": 651,
      "åħ¨": 652,
      "æİ¥": 653,
      "ç¬¬": 654,
      "å¤Ħ": 655,
      "æł¹": 656,
      "å»": 657,
      "åĽ½": 658,
      "00": 659,
      "çĽ´": 660,
      "éĹ®é¢ĺ": 661,
      "çī¹": 662,
      "æ¡": 663,
      "éĹ¨": 664,
      "æļ": 665,
      "è®¡": 666,
      "èĩ³": 667,
      "æĳ": 668,
      "å°±æĺ¯": 669,
      "ä¿¡": 670,
      "æµ·": 671,
      "çĸ": 672,
      "çİ°åľ¨": 673,
      "åįģ": 674,
      "è§ģ": 675,
      "è½»": 676,
      "----": 677,
      "è¯¥": 678,
      "åģļ": 679,
      "ï¼ģâĢĿ": 680,
      "éĵ": 681,
      "ç»ĵ": 682,
      "å¥³": 683,
      "ä¸ĢäºĽ": 684,
      "å·¥": 685,
      "åĪ«": 686,
      "è§ī": 687,
      "åįķ": 688,
      "éĿŀ": 689,
      "çĶµ": 690,
      "åŃĹ": 691,
      "¥¿": 692,
      "åĥ": 693,
      "é»ĳ": 694,
      "è±": 695,
      "åıĪ": 696,
      "ç³»": 697,
      "æĬĬ": 698,
      "åħĪ": 699,
      "é©": 700,
      "æĶ¾": 701,
      "éĩĳ": 702,
      "ä»£": 703,
      "ä¾¿": 704,
      "åĲĹ": 705,
      "æĹ¥": 706,
      "è·¯": 707,
      "è¥¿": 708,
      "çĽ®": 709,
      "åįĩ": 710,
      "å¼ı": 711,
      "æĺ¯ä¸Ģ": 712,
      "åīĳ": 713,
      "ç¡®": 714,
      "å¿«": 715,
      "å¸Ī": 716,
      "åĪ¶": 717,
      "éĢī": 718,
      "çª": 719,
      "æģ¯": 720,
      "å®Į": 721,
      "æ¸ħ": 722,
      "èĲ½": 723,
      "ç¨ĭ": 724,
      "åıĹ": 725,
      "ç¿": 726,
      "çŁ¥éģĵ": 727,
      "å¸¦": 728,
      "åı¯èĥ½": 729,
      "å¸®": 730,
      "æĬĢ": 731,
      "åĥı": 732,
      "æ´»": 733,
      "æŃ¥": 734,
      "ä»»": 735,
      "æĿĢ": 736,
      "ä¿Ŀ": 737,
      "åĪ°äºĨ": 738,
      "åĲ¬": 739,
      "æº": 740,
      "ä¸ŃçļĦ": 741,
      "éĺŁ": 742,
      "å¢ĥ": 743,
      "åİŁ": 744,
      "åĻ": 745,
      "åĮħ": 746,
      "æ¯ı": 747,
      "ï¼ĮâĢľ": 748,
      "è¨": 749,
      "è¨Ģ": 750,
      "åħ·": 751,
      "æ¢": 752,
      "ä¼ł": 753,
      "æ·±": 754,
      "å½¢": 755,
      "ç¦»": 756,
      "é¸": 757,
      "åĢĻ": 758,
      "ä¿®": 759,
      "âĢĶ": 760,
      "æł¼": 761,
      "åĦ": 762,
      "åĵª": 763,
      "éļ¾": 764,
      "èĬ±": 765,
      "æĮĩ": 766,
      "å»º": 767,
      "æľ¯": 768,
      "åĶ": 769,
      "è½¬": 770,
      "æŀĹ": 771,
      "ä¹Ĳ": 772,
      "è¿ĳ": 773,
      "äºĮ": 774,
      "æĢĿ": 775,
      "åĪ»": 776,
      "è¿ľ": 777,
      "åĳ½": 778,
      "å¨": 779,
      "ï¼ī": 780,
      "åŀ": 781,
      "æĢ»": 782,
      "æŃ¦": 783,
      "æľĽ": 784,
      "æ¥": 785,
      "çīĩ": 786,
      "åĨĻ": 787,
      "çģµ": 788,
      "å¤ľ": 789,
      "åį´": 790,
      "æī¾": 791,
      "ä»¶": 792,
      "è¿ĺæĺ¯": 793,
      "åĨĽ": 794,
      "æ¼": 795,
      "æĸ¹å¹³": 796,
      "éļı": 797,
      "åĸľ": 798,
      "å§ĭ": 799,
      "çĲĥ": 800,
      "ï¼Ī": 801,
      "åĦ¿": 802,
      "å¾®": 803,
      "éŁ³": 804,
      "æľĪ": 805,
      "ä¾Ľ": 806,
      "æµģ": 807,
      "ä»Ĭ": 808,
      "çĬ": 809,
      "ä»ĸçļĦ": 810,
      "å®¹": 811,
      "è¯į": 812,
      "åıį": 813,
      "åĺ": 814,
      "åıĬ": 815,
      "ä½¿çĶ¨": 816,
      "è´¨": 817,
      "åĪ©": 818,
      "çŃĶ": 819,
      "åĽłä¸º": 820,
      "éĺ³": 821,
      "é£ŀ": 822,
      "é¦ĸ": 823,
      "å¤ĩ": 824,
      "é¥": 825,
      "æ¬¢": 826,
      "ç¢": 827,
      "å£«": 828,
      "ä¸ĸçķĮ": 829,
      "äº¤": 830,
      "é¾": 831,
      "åĽĽ": 832,
      "ä½ı": 833,
      "å¤Ł": 834,
      "æŀģ": 835,
      "é£Ł": 836,
      "æ®µ": 837,
      "æķ´": 838,
      "åħĥ": 839,
      "ä¹¦": 840,
      "åĲ§": 841,
      "in": 842,
      "æİ¨": 843,
      "éĢĤ": 844,
      "æ¸¸": 845,
      "è®¸": 846,
      "ä¸ľ": 847,
      "æħ": 848,
      "æĮģ": 849,
      "æĸŃ": 850,
      "æľª": 851,
      "å°Ķ": 852,
      "æĢİ": 853,
      "ç«ł": 854,
      "åĬ¡": 855,
      "æĿ¡": 856,
      "è¿Ľè¡Į": 857,
      "å²": 858,
      "èĦ¸": 859,
      "çĶ±": 860,
      "çº¿": 861,
      "èĮ": 862,
      "æĹ¶åĢĻ": 863,
      "çģ«": 864,
      "è¿°": 865,
      "ä¸įè¿ĩ": 866,
      "èħ": 867,
      "æ»¡": 868,
      "å¼ł": 869,
      "æľīäºĽ": 870,
      "èı": 871,
      "è§Ĥ": 872,
      "è¾¾": 873,
      "èµ·æĿ¥": 874,
      "æĻº": 875,
      "âĢ¦âĢ¦âĢĿ": 876,
      "Ġè¿Ļ": 877,
      "äººçļĦ": 878,
      "æĹ¶éĹ´": 879,
      "ä»¥ä¸ĭ": 880,
      "åĻ¨": 881,
      "æıĲä¾Ľ": 882,
      "è¡Ģ": 883,
      "ä¸Ķ": 884,
      "çħ": 885,
      "éĿŀå¸¸": 886,
      "å¡": 887,
      "ä»·": 888,
      "é¢Ĩ": 889,
      "åķĬ": 890,
      "åĲĦ": 891,
      "æĴ": 892,
      "ä¸ĩ": 893,
      "æĶ¶": 894,
      "åĩ»": 895,
      "çŀ": 896,
      "æ±Ĥ": 897,
      "æĲ": 898,
      "åĪĻ": 899,
      "åįĬ": 900,
      "æł¹æį®": 901,
      "æĻ¯": 902,
      "äº§": 903,
      "çº¢": 904,
      "æ£": 905,
      "ä¸ļ": 906,
      "ç²¾": 907,
      "åĩĨ": 908,
      "äºĶ": 909,
      "åıªæĺ¯": 910,
      "éĤ£ä¹Ī": 911,
      "çļĦäºº": 912,
      "ç»Ī": 913,
      "è§Ĩ": 914,
      "å¸ĥ": 915,
      "çĻ¾": 916,
      "ä¸Ģä¸ĭ": 917,
      "åĳ¨": 918,
      "çł´": 919,
      "è£ħ": 920,
      "èĬĤ": 921,
      "æĢİä¹Ī": 922,
      "è®º": 923,
      "ç«ĭ": 924,
      "çº§": 925,
      "éĢŁ": 926,
      "å±ķ": 927,
      "è½¦": 928,
      "åĳĬ": 929,
      "åĢ¼": 930,
      "åŃĺ": 931,
      "åį³": 932,
      "å¤į": 933,
      "ä¸ĬçļĦ": 934,
      "åĪĹ": 935,
      "å¹³å®ī": 936,
      "è®¤": 937,
      "æºĲ": 938,
      "ç»Ń": 939,
      "é¾Ļ": 940,
      "æĿ¥çļĦ": 941,
      "æ¨": 942,
      "éĥ½æĺ¯": 943,
      "ç±³": 944,
      "åĨµ": 945,
      "æ³¨": 946,
      "ä¼¼": 947,
      "åıĸ": 948,
      "åĳ³": 949,
      "å¸Ĥ": 950,
      "è§Ĵ": 951,
      "è·Ł": 952,
      "éĻĪå¹³å®ī": 953,
      "çİ¯": 954,
      "è¿Ļæł·": 955,
      "æ¶Ī": 956,
      "æĸĻ": 957,
      "åĵį": 958,
      "å¼Ģå§ĭ": 959,
      "è¿ŀ": 960,
      "éĿĴ": 961,
      "åº§": 962,
      "åĮº": 963,
      "çĹ": 964,
      "è¶Ĭ": 965,
      "çĪ±": 966,
      "é©¬": 967,
      "èĽ": 968,
      "ç®Ģ": 969,
      "ä¾ĭ": 970,
      "åŀĭ": 971,
      "ç¯": 972,
      "ç¤º": 973,
      "è¯ķ": 974,
      "ä¸ĥ": 975,
      "åĨ³": 976,
      "åĽłæŃ¤": 977,
      "å½ĵçĦ¶": 978,
      "åĪļ": 979,
      "åĽ¢": 980,
      "ç«Ļ": 981,
      "éĢł": 982,
      "ä¹Łæĺ¯": 983,
      "Ġ=": 984,
      "ä»½": 985,
      "è¿ĺæľī": 986,
      "æľŁ": 987,
      "åĢĴ": 988,
      "æĭ©": 989,
      "è®°": 990,
      "åºķ": 991,
      "åĬ©": 992,
      "è¿Ĳ": 993,
      "åĪĢ": 994,
      "æķĻ": 995,
      "åĮĹ": 996,
      "è±¡": 997,
      "åı¶": 998,
      "ãĢĭ": 999,
      "ãĢĬ": 1000,
      "åĳ¢": 1001,
      "éĢīæĭ©": 1002,
      "æĸ¯": 1003,
      "å¤±": 1004,
      "½çĦ¶": 1005,
      "æīĢä»¥": 1006,
      "çİ©": 1007,
      "çļĦä¸Ģ": 1008,
      "åı·": 1009,
      "è®®": 1010,
      "an": 1011,
      "ç¿»": 1012,
      "ä¸įä¼ļ": 1013,
      "è®¾": 1014,
      "åħ¶ä»ĸ": 1015,
      "éŃĶ": 1016,
      "è¯Ĩ": 1017,
      "å®ĥä»¬": 1018,
      "ä½Ĩæĺ¯": 1019,
      "ä¸įåĲĮ": 1020,
      "æ¸©": 1021,
      "åĬ¿": 1022,
      "è¿Ļç§į": 1023,
      "è¯´éģĵ": 1024,
      "æĢģ": 1025,
      "æŃĮ": 1026,
      "ä¹ī": 1027,
      "åıĮ": 1028,
      "æĢķ": 1029,
      "åħĭ": 1030,
      "èĩªå·±çļĦ": 1031,
      "ä½łä»¬": 1032,
      "çº¦": 1033,
      "10": 1034,
      "åĲĥ": 1035,
      "åĸľæ¬¢": 1036,
      "æĭī": 1037,
      "å±ŀ": 1038,
      "å¤§çļĦ": 1039,
      "è¶³": 1040,
      "éĶĻ": 1041,
      "åŁº": 1042,
      "è¿Ļæĺ¯": 1043,
      "å¾Ģ": 1044,
      "åįĹ": 1045,
      "ç®¡": 1046,
      "åĳĺ": 1047,
      "èĩªçĦ¶": 1048,
      "åŁŁ": 1049,
      "on": 1050,
      "è¯Ĺ": 1051,
      "æıı": 1052,
      "æĹı": 1053,
      "éĴ±": 1054,
      "åħµ": 1055,
      "ç»Ĩ": 1056,
      "æĸĩæľ¬": 1057,
      "åł": 1058,
      "er": 1059,
      "åĲĮæĹ¶": 1060,
      "æ±ī": 1061,
      "ä½İ": 1062,
      "æłĩ": 1063,
      "åĽ´": 1064,
      "ä¸¤ä¸ª": 1065,
      "ç§ĳ": 1066,
      "Ġt": 1067,
      "åĪĽ": 1068,
      "åºĶè¯¥": 1069,
      "è°ĥ": 1070,
      "æĻºèĥ½": 1071,
      "æīĢæľī": 1072,
      "æ²ī": 1073,
      "åĿĲ": 1074,
      "éĿĻ": 1075,
      "éĢļè¿ĩ": 1076,
      "çªģ": 1077,
      "çĮ«": 1078,
      "æķħ": 1079,
      "ä¹İ": 1080,
      "æľį": 1081,
      "å¦Ĥä½ķ": 1082,
      "é»Ħ": 1083,
      "å¹²": 1084,
      "è¿Ļä¹Ī": 1085,
      "å¿ħ": 1086,
      "åı¥åŃĲ": 1087,
      "èĭ±": 1088,
      "éħĴ": 1089,
      "æļĹ": 1090,
      "èģĶ": 1091,
      "èĤī": 1092,
      "æĬ¥": 1093,
      "çı": 1094,
      "ç»Ħ": 1095,
      "å¥ĩ": 1096,
      "ä¹ĭåĲİ": 1097,
      "çĥŃ": 1098,
      "ä½łçļĦ": 1099,
      "æĹ©": 1100,
      "åı¤": 1101,
      "èĢĥ": 1102,
      "ç»Ł": 1103,
      "åĲ¦": 1104,
      "ç½®": 1105,
      "è¿Ļä¸Ģ": 1106,
      "éĻ¤": 1107,
      "æĭ¬": 1108,
      "æĬ¤": 1109,
      "åıĭ": 1110,
      "æķĪ": 1111,
      "æłĳ": 1112,
      "çŁ³": 1113,
      "ãĢĲ": 1114,
      "æĿİ": 1115,
      "è®¡ç®Ĺ": 1116,
      "ãĢĳ": 1117,
      "å®¢": 1118,
      "åİĨ": 1119,
      "æĶ¯": 1120,
      "é±": 1121,
      "åĬŁ": 1122,
      "æİĴ": 1123,
      "é±¼": 1124,
      "è°¢": 1125,
      "äºĳ": 1126,
      "èıľ": 1127,
      "ä¼Ĺ": 1128,
      "Â·Â·": 1129,
      "èĥ½å¤Ł": 1130,
      "æ¨¡": 1131,
      "ä¹Łä¸į": 1132,
      "å¼ķ": 1133,
      "ç¯ĩ": 1134,
      "æĥħåĨµ": 1135,
      "ç»Ŀ": 1136,
      "åĭ": 1137,
      "æ¦": 1138,
      "èĳ": 1139,
      "ä¹ł": 1140,
      "å¾·": 1141,
      "å¯¼": 1142,
      "çľĭåĪ°": 1143,
      "çĭĹ": 1144,
      "ä¿¡æģ¯": 1145,
      "æ¤": 1146,
      "ç»ĻæĪĳ": 1147,
      "æĺ¾": 1148,
      "åĪĩ": 1149,
      "ãĢĮ": 1150,
      "çĦ¶åĲİ": 1151,
      "å¤ı": 1152,
      "éĤ£äºĽ": 1153,
      "20": 1154,
      "éĤ£ä¸ª": 1155,
      "èĪ¬": 1156,
      "åľ¨è¿Ļ": 1157,
      "åħ´": 1158,
      "çĶŁæĪĲ": 1159,
      "æĪĸèĢħ": 1160,
      "éĻ¢": 1161,
      "æĪ¿": 1162,
      "ä¼¤": 1163,
      "çĨ": 1164,
      "æľĿ": 1165,
      "ç´ł": 1166,
      "æľĢåĲİ": 1167,
      "è¾ĵ": 1168,
      "ãĢį": 1169,
      "å¼Ĥ": 1170,
      "å®ĺ": 1171,
      "çħ§": 1172,
      "ä»Ļ": 1173,
      "æııè¿°": 1174,
      "åķĨ": 1175,
      "å·´": 1176,
      "å®ģ": 1177,
      "å°½": 1178,
      "åºı": 1179,
      "åĽ¾": 1180,
      "åħ³äºİ": 1181,
      "äºĭæĥħ": 1182,
      "âĢĶâĢĶ": 1183,
      "å¸Ŀ": 1184,
      "çķĻ": 1185,
      "æ¥ļ": 1186,
      "éĽ¨": 1187,
      "æķ£": 1188,
      "éĺµ": 1189,
      "å®Ŀ": 1190,
      "åĮħæĭ¬": 1191,
      "re": 1192,
      "è§īå¾Ĺ": 1193,
      "å·¨": 1194,
      "ä»¥åıĬ": 1195,
      "é²": 1196,
      "èĵ": 1197,
      "è¶ħ": 1198,
      "èĲ§": 1199,
      "åĽŀçŃĶ": 1200,
      "çĬ¶": 1201,
      "çŁŃ": 1202,
      "ä¸ľè¥¿": 1203,
      "ä¹ĭåīį": 1204,
      "å³": 1205,
      "--------": 1206,
      "çĭ¬": 1207,
      "åĨ²": 1208,
      "è¾ĥ": 1209,
      "èĻ½çĦ¶": 1210,
      "å±Ĥ": 1211,
      "çĵ": 1212,
      "ç©¿": 1213,
      "èĥ½åĬĽ": 1214,
      "ä¹ħ": 1215,
      "æĸĹ": 1216,
      "æķ°æį®": 1217,
      "éĿ¢çļĦ": 1218,
      "æį¢": 1219,
      "ç§°": 1220,
      "ç¼ĵ": 1221,
      "ç´¢": 1222,
      "å¸Į": 1223,
      "æĸĩç«ł": 1224,
      "æĺĵ": 1225,
      "æ¡Ī": 1226,
      "Ġa": 1227,
      "åľ£": 1228,
      "èµĦ": 1229,
      "åįĥ": 1230,
      "è°ģ": 1231,
      "¤Ĳ": 1232,
      "èİ·": 1233,
      "æĬĢæľ¯": 1234,
      "ç§¯": 1235,
      "åĽŃ": 1236,
      "éħį": 1237,
      "åı¸": 1238,
      "å·®": 1239,
      "é¢Ħ": 1240,
      "è¯ī": 1241,
      "ä¹ĭéĹ´": 1242,
      "ä¸Ģèµ·": 1243,
      "åħ¶ä¸Ń": 1244,
      "è§Ħ": 1245,
      "éŁ©": 1246,
      "æĭ¿": 1247,
      "çľĭçĿĢ": 1248,
      "éĻ©": 1249,
      "æĹłæ³ķ": 1250,
      "æĵ": 1251,
      "é¤Ĳ": 1252,
      "åı¦": 1253,
      "éĩįè¦ģ": 1254,
      "æĥĬ": 1255,
      "æ¹": 1256,
      "Ġ|": 1257,
      "çļĩ": 1258,
      "æĶ¹": 1259,
      "åĵĪ": 1260,
      "äº²": 1261,
      "èĦļ": 1262,
      "èµĽ": 1263,
      "åıĳçİ°": 1264,
      "æĪ·": 1265,
      "ç´§": 1266,
      "åħ¶å®ŀ": 1267,
      "ä¸įèĥ½": 1268,
      "ç½ĳ": 1269,
      "åĩºçİ°": 1270,
      "èĦĳ": 1271,
      "Ġ1": 1272,
      "çļĦæĺ¯": 1273,
      "Ġä¸Ģ": 1274,
      "åĹ": 1275,
      "ç»ĵæŀľ": 1276,
      "æİ¢": 1277,
      "ĠèĭıæĻĵ": 1278,
      "âĢĻ": 1279,
      "èĴ": 1280,
      "åı°": 1281,
      "or": 1282,
      "ç»§": 1283,
      "ä¹°": 1284,
      "âĢĺ": 1285,
      "åį¡": 1286,
      "æĹģ": 1287,
      "èĩ´": 1288,
      "ç«Ł": 1289,
      "èĥĮ": 1290,
      "æĳĩ": 1291,
      "éªĮ": 1292,
      "åĩºæĿ¥": 1293,
      "ç¬¦": 1294,
      "åİĭ": 1295,
      "å¦ĤæŃ¤": 1296,
      "åĨ·": 1297,
      "æŁ¥": 1298,
      "æĪĳçļĦ": 1299,
      "æµĭ": 1300,
      "å±ħ": 1301,
      "äººå·¥": 1302,
      "æľīä¸Ģ": 1303,
      "ä¼Ļ": 1304,
      "å¯Ĩ": 1305,
      "çĶ·": 1306,
      "ç¬¬ä¸Ģ": 1307,
      "``": 1308,
      "é¦Ļ": 1309,
      "åħ«": 1310,
      "å¾ħ": 1311,
      "åĳĬè¯ī": 1312,
      "çİĩ": 1313,
      "æĻļ": 1314,
      "åı«": 1315,
      "å¸®åĬ©": 1316,
      "åħ±": 1317,
      "en": 1318,
      "æŁĲ": 1319,
      "ï¼Ľ": 1320,
      "åľŁ": 1321,
      "æķĮ": 1322,
      "éº": 1323,
      "æ±īåįĩ": 1324,
      "æĮī": 1325,
      "æĿ¾": 1326,
      "è¶£": 1327,
      "å¾Īå¤ļ": 1328,
      "æĶ»": 1329,
      "è¯Ħ": 1330,
      "æĿĲ": 1331,
      "é¼": 1332,
      "è¡£": 1333,
      "ä¸ĭæĿ¥": 1334,
      "å½±åĵį": 1335,
      "éĨ": 1336,
      "äººå·¥æĻºèĥ½": 1337,
      "å®Ĺ": 1338,
      "éĩĬ": 1339,
      "éĻĪæ±īåįĩ": 1340,
      "å¯¹äºİ": 1341,
      "éĽĨ": 1342,
      "is": 1343,
      "å¤ļå°ĳ": 1344,
      "çĶµå½±": 1345,
      "è¯ĳ": 1346,
      "ä¹ĭä¸Ģ": 1347,
      "ç½Ĺ": 1348,
      "éĺ¿": 1349,
      "å¾Ĳ": 1350,
      "è¯»": 1351,
      "è®²": 1352,
      "å¢ŀ": 1353,
      "çļĦåľ°": 1354,
      "äººç±»": 1355,
      "ä¾ĭå¦Ĥ": 1356,
      "ä¼ĺ": 1357,
      "è¸": 1358,
      "èĵĿ": 1359,
      "èįī": 1360,
      "å¹¿": 1361,
      "çĸĳ": 1362,
      "æİĮ": 1363,
      "èİ«": 1364,
      "åĲ¸": 1365,
      "ä»»åĬ¡": 1366,
      "èĭ¥": 1367,
      "éĢģ": 1368,
      "å¤«": 1369,
      "æ¦Ĥ": 1370,
      "éĤ£è¾¹": 1371,
      "æĽ´åĬł": 1372,
      "çīĽ": 1373,
      "æĸ©": 1374,
      "å¯¹æĸ¹": 1375,
      "æľ¨": 1376,
      "ç¿»è¯ĳ": 1377,
      "éĵģ": 1378,
      "èįĲ": 1379,
      "è·ĳ": 1380,
      "å»ºè®®": 1381,
      "åĪĿ": 1382,
      "åĿĹ": 1383,
      "ç¬ĳéģĵ": 1384,
      "çļĦæĹ¶åĢĻ": 1385,
      "at": 1386,
      "ç»§ç»Ń": 1387,
      "æ¥¼": 1388,
      "åĩĨå¤ĩ": 1389,
      "åįİ": 1390,
      "æĦŁè§ī": 1391,
      "ou": 1392,
      "çłģ": 1393,
      "æİ¨èįĲ": 1394,
      "ä»ħ": 1395,
      "æ³¢": 1396,
      "çĶŁåĳ½": 1397,
      "æĸ¹å¼ı": 1398,
      "çĶļ": 1399,
      "æĹħ": 1400,
      "åģľ": 1401,
      "èĲ¥": 1402,
      "èº«ä½ĵ": 1403,
      "ä»¤": 1404,
      "èĢĮä¸Ķ": 1405,
      "Ġæĸ¹å¹³": 1406,
      "åĳ¼": 1407,
      "åıĤ": 1408,
      "èĹ": 1409,
      "åħħ": 1410,
      "å´": 1411,
      "çĶ»": 1412,
      "ç»´": 1413,
      "äºī": 1414,
      "é¡¹": 1415,
      "æķ¢": 1416,
      "å¤ªéĺ³": 1417,
      "æĢª": 1418,
      "éļĲ": 1419,
      "æ¸Ĳ": 1420,
      "æ½": 1421,
      "æ²Ļ": 1422,
      "æĺ¯ä¸Ģä¸ª": 1423,
      "éľ²": 1424,
      "å¿µ": 1425,
      "åıĳå±ķ": 1426,
      "ä¸Ŀ": 1427,
      "å©": 1428,
      "çļĦå¤§": 1429,
      "åŃ©": 1430,
      "èľ": 1431,
      "äººä»¬": 1432,
      "çģŃ": 1433,
      "è¯ģ": 1434,
      "éĻĲ": 1435,
      "åĲ«": 1436,
      "ä¸ºäºĨ": 1437,
      "ä¾Ŀ": 1438,
      "ç§ĭ": 1439,
      "åĬ¨çī©": 1440,
      "ä»»ä½ķ": 1441,
      "èĻļ": 1442,
      "ä¸½": 1443,
      "èĽĭ": 1444,
      "ä½ľä¸º": 1445,
      "èī²çļĦ": 1446,
      "Ġs": 1447,
      "æİī": 1448,
      "å®ļçļĦ": 1449,
      "æĪĳæĥ³": 1450,
      "éŃĤ": 1451,
      "åĪĴ": 1452,
      "åĤ": 1453,
      "çĽ´æİ¥": 1454,
      "es": 1455,
      "æ²³": 1456,
      "Ġä»ĸ": 1457,
      "éŁ©èĲ§": 1458,
      "ä»Ĭå¤©": 1459,
      "åħŃ": 1460,
      "ä¸ªäºº": 1461,
      "åħ³ç³»": 1462,
      "ä½Ļ": 1463,
      "ç¤¾": 1464,
      "åĮ»": 1465,
      "éĴŁ": 1466,
      "Ġ\"": 1467,
      "è´Ł": 1468,
      "æĪı": 1469,
      "å¸ĮæľĽ": 1470,
      "æ¿": 1471,
      "çĶļèĩ³": 1472,
      "ç¢İ": 1473,
      "åĩ¤": 1474,
      "ç§ĺ": 1475,
      "åĬŀ": 1476,
      "çļĦè¯Ŀ": 1477,
      "ç©¶": 1478,
      "è¯Ńè¨Ģ": 1479,
      "æĺ¥": 1480,
      "å·¦": 1481,
      "åŃ£": 1482,
      "he": 1483,
      "çĪĨ": 1484,
      "æİ§": 1485,
      "åĩºäºĨ": 1486,
      "æħ¢": 1487,
      "åŃĺåľ¨": 1488,
      "==": 1489,
      "å³°": 1490,
      "æķħäºĭ": 1491,
      "å®Ī": 1492,
      "æ±Ł": 1493,
      "æĽ²": 1494,
      "ç¾¤": 1495,
      "éĹª": 1496,
      "çªģçĦ¶": 1497,
      "Ġåľ¨": 1498,
      "é»ĺ": 1499,
      "ç»ĥ": 1500,
      "éĺ²": 1501,
      "è¿½": 1502,
      "å®³": 1503,
      "ĠéĻĪå¹³å®ī": 1504,
      "åĺ´": 1505,
      "è®¸å¤ļ": 1506,
      "éĻĨ": 1507,
      "åı²": 1508,
      "ä¹Ŀ": 1509,
      "æĥħæĦŁ": 1510,
      "çĤ¹å¤´": 1511,
      "å®¶ä¼Ļ": 1512,
      "çľŁçļĦ": 1513,
      "æĽ¾": 1514,
      "è¿ĻéĩĮ": 1515,
      "ç®Ģåįķ": 1516,
      "é¡¿": 1517,
      "æ°ĳ": 1518,
      "éĿł": 1519,
      "çļ®": 1520,
      "ä¸Ģæł·": 1521,
      "æŀĦ": 1522,
      "èĻĳ": 1523,
      "æ´²": 1524,
      "æ¯Ķå¦Ĥ": 1525,
      "éģ¿": 1526,
      "åħ·ä½ĵ": 1527,
      "æ·¡": 1528,
      "éķĩ": 1529,
      "åĩī": 1530,
      "Ġ2": 1531,
      "é¸¡": 1532,
      "ä¸ĢçĽ´": 1533,
      "åı³": 1534,
      "äº®": 1535,
      "åĩı": 1536,
      "æĽ´å¤ļ": 1537,
      "äº¬": 1538,
      "è·Ŀ": 1539,
      "æ¿Ģ": 1540,
      "æĸ¹æ³ķ": 1541,
      "ä¸ĭçļĦ": 1542,
      "åĪĨç±»": 1543,
      "åºĶçĶ¨": 1544,
      "é¢Ĺ": 1545,
      "è½®": 1546,
      "çĳ": 1547,
      "çİ¯å¢ĥ": 1548,
      "ä¹±": 1549,
      "åĸĿ": 1550,
      "æŀª": 1551,
      "åŁİå¸Ĥ": 1552,
      "éªĳ": 1553,
      "çīĮ": 1554,
      "é¢ĨåŁŁ": 1555,
      "å¼Ł": 1556,
      "è´Ń": 1557,
      "å¥¶": 1558,
      "åŃ¦ä¹ł": 1559,
      "é¡¶": 1560,
      "æĩ": 1561,
      "çļĦå°ı": 1562,
      "åĲĽ": 1563,
      "æ··": 1564,
      "åį°": 1565,
      "éĩİ": 1566,
      "åĨ°": 1567,
      "è§£éĩĬ": 1568,
      "æ²¹": 1569,
      "æŃ¢": 1570,
      "æĮĳ": 1571,
      "å¨ģ": 1572,
      "ä»ĭ": 1573,
      "åĩºä¸Ģ": 1574,
      "éģĩ": 1575,
      "ç¼ĸ": 1576,
      "âĢĿï¼Į": 1577,
      "å¹´è½»": 1578,
      "åıªæľī": 1579,
      "éĢĤåĲĪ": 1580,
      "è´¹": 1581,
      "éĻį": 1582,
      "é¡º": 1583,
      "æ³¨æĦı": 1584,
      "åı¥è¯Ŀ": 1585,
      "æĭ³": 1586,
      "ç»¿": 1587,
      "æ¼Ķ": 1588,
      "æŃ¤æĹ¶": 1589,
      "ä¸ĥå¤ľ": 1590,
      "éĹ»": 1591,
      "äº«": 1592,
      "å½Ĵ": 1593,
      "le": 1594,
      "å¤©æ°Ķ": 1595,
      "éĹ®éģĵ": 1596,
      "çĶŁæ´»": 1597,
      "äºļ": 1598,
      "å±Ģ": 1599,
      "çĸĹ": 1600,
      "å®¤": 1601,
      "ar": 1602,
      "ä»ĸä»¬çļĦ": 1603,
      "å°Ŀ": 1604,
      "é¢ľ": 1605,
      "æ¯į": 1606,
      "æĿ¿": 1607,
      "å¯»": 1608,
      "éĻħ": 1609,
      "æģĲ": 1610,
      "å£°éŁ³": 1611,
      "åĨĻä¸Ģ": 1612,
      "å¾ĹåĪ°": 1613,
      "ä¸»é¢ĺ": 1614,
      "çŀ¬": 1615,
      "å¿Ļ": 1616,
      "åħį": 1617,
      "åİħ": 1618,
      "å®ĮæĪĲ": 1619,
      "å®ĥçļĦ": 1620,
      "è¿ĩæĿ¥": 1621,
      "åĳĬè¯īæĪĳ": 1622,
      "åħ»": 1623,
      "æĦıæĢĿ": 1624,
      "ç¦»å¼Ģ": 1625,
      "èĪ¹": 1626,
      "ä¸¾": 1627,
      "æľĢç»Ī": 1628,
      "çĪ¶": 1629,
      "Ġc": 1630,
      "èİ·å¾Ĺ": 1631,
      "éĶ®": 1632,
      "åĩłä¸ª": 1633,
      "ä¸Ģæ¬¡": 1634,
      "æŀĹä¸ĥå¤ľ": 1635,
      "çĶ²": 1636,
      "ç¤¼": 1637,
      "éĥ¨åĪĨ": 1638,
      "èĨ": 1639,
      "æ´ŀ": 1640,
      "åĬłåħ¥": 1641,
      "th": 1642,
      "æĪĲä¸º": 1643,
      "éŁ³ä¹Ĳ": 1644,
      "æĥ³è¦ģ": 1645,
      "é²ľ": 1646,
      "æĸ°çļĦ": 1647,
      "åģ¥": 1648,
      "åĬĽéĩı": 1649,
      "æıĲåįĩ": 1650,
      "æĦ¿": 1651,
      "æ°¸": 1652,
      "æĺ¯ä»Ģä¹Ī": 1653,
      "çłĶ": 1654,
      "çĥ¤": 1655,
      "éĽ·": 1656,
      "æĸ¹éĿ¢": 1657,
      "ä¸ĵ": 1658,
      "ä¸įçŁ¥éģĵ": 1659,
      "æĺ¯ä¸Ģç§į": 1660,
      "æ¢¦": 1661,
      "äºĴ": 1662,
      "éĽª": 1663,
      "æĪĳä»¬çļĦ": 1664,
      "é¬": 1665,
      "å°ģ": 1666,
      "èĸ": 1667,
      "èį¯": 1668,
      "Ġ-": 1669,
      "æĿĥ": 1670,
      "åį«": 1671,
      "é¡¾": 1672,
      "è§£åĨ³": 1673,
      "ç¬¬äºĮ": 1674,
      "æ¹ĸ": 1675,
      "åħ¬åı¸": 1676,
      "æŃ£åľ¨": 1677,
      "å¥½åĥı": 1678,
      "éĵ¶": 1679,
      "å¤©çļĦ": 1680,
      "åģĩ": 1681,
      "å¼¹": 1682,
      "èĩ³äºİ": 1683,
      "èĥľ": 1684,
      "æľĭ": 1685,
      "çİ©å®¶": 1686,
      "æĿ¯": 1687,
      "çĤ¼": 1688,
      "ä¸įæĸŃ": 1689,
      "Ġb": 1690,
      "çİī": 1691,
      "æĮ¥": 1692,
      "å¯Į": 1693,
      "äºĨè§£": 1694,
      "éĺ¶": 1695,
      "æ¸¸æĪı": 1696,
      "å¾ĭ": 1697,
      "è¿Ľåħ¥": 1698,
      "éª¨": 1699,
      "æķ´ä¸ª": 1700,
      "åľĨ": 1701,
      "èģĮ": 1702,
      "éĢĢ": 1703,
      "ä¸Ģå£°": 1704,
      "éĻĦ": 1705,
      "æĺ¯åľ¨": 1706,
      "ä¸»è¦ģ": 1707,
      "ĠãĢĲ": 1708,
      "æĺ¯åĲ¦": 1709,
      "é¸Ł": 1710,
      "æŃ¤å¤ĸ": 1711,
      "çĩ": 1712,
      "å·§": 1713,
      "èĥ½éĩı": 1714,
      "èĭ¦": 1715,
      "åįķè¯į": 1716,
      "æ´»åĬ¨": 1717,
      "ä¸¥": 1718,
      "æŁĶ": 1719,
      "èĶ": 1720,
      "é«ĺæĸĩ": 1721,
      "Ġp": 1722,
      "åĪ¤": 1723,
      "å®Įåħ¨": 1724,
      "æľĭåıĭ": 1725,
      "åĿĩ": 1726,
      "å¡Ķ": 1727,
      "èģļ": 1728,
      "å¢Ļ": 1729,
      "é¹": 1730,
      "çŃīçŃī": 1731,
      "åıĳçĶŁ": 1732,
      "æ¬¾": 1733,
      "ä¸´": 1734,
      "è·Ŀç¦»": 1735,
      "åºĹ": 1736,
      "æĭĽ": 1737,
      "100": 1738,
      "Ġd": 1739,
      "ä½Ľ": 1740,
      "æ¯Ķè¾ĥ": 1741,
      "æĿĤ": 1742,
      "åºľ": 1743,
      "éĨĴ": 1744,
      "çĹħ": 1745,
      "å¨ĺ": 1746,
      "è¡¨è¾¾": 1747,
      "ä¸Ģç§į": 1748,
      "è¿ĩç¨ĭ": 1749,
      "åıĺåĮĸ": 1750,
      "ä¼¼ä¹İ": 1751,
      "é½": 1752,
      "å¼Ģåı£": 1753,
      "æĬķ": 1754,
      "å°Ħ": 1755,
      "å¹¸": 1756,
      "åĪº": 1757,
      "æı¡": 1758,
      "éĢļå¸¸": 1759,
      "èīº": 1760,
      "åºŃ": 1761,
      "æ¯ħ": 1762,
      "èĢĥèĻĳ": 1763,
      "éĢŁåº¦": 1764,
      "çľī": 1765,
      "æĪĺæĸĹ": 1766,
      "Ġå°Ĩ": 1767,
      "ä¸įåĲĮçļĦ": 1768,
      "å¡ŀ": 1769,
      "è¿ĩåİ»": 1770,
      "æģ¶": 1771,
      "é¥®": 1772,
      "åı¶ä¿®": 1773,
      "æµª": 1774,
      "è·³": 1775,
      "æ²»": 1776,
      "çĨŁ": 1777,
      "Ġ3": 1778,
      "æĤ¨çļĦ": 1779,
      "æĻ®": 1780,
      "çŀ¬éĹ´": 1781,
      "èĹı": 1782,
      "åħ½": 1783,
      "æ´ĭ": 1784,
      "ç£": 1785,
      "æľºä¼ļ": 1786,
      "åĶĲ": 1787,
      "ĠâĢ¦âĢ¦": 1788,
      "æī¾åĪ°": 1789,
      "æĭį": 1790,
      "å·ŀ": 1791,
      "éĢĲ": 1792,
      "æļ´": 1793,
      "æ¯«": 1794,
      "åıªèĥ½": 1795,
      "éŃĦ": 1796,
      "è®©äºº": 1797,
      "çĽĺ": 1798,
      "æĦŁåıĹ": 1799,
      "ç²ī": 1800,
      "åĪĺ": 1801,
      "å°¼": 1802,
      "è¿Ļæ¬¡": 1803,
      "æĢ¥": 1804,
      "é¬¼": 1805,
      "åĪ¶ä½ľ": 1806,
      "ç«Ļåľ¨": 1807,
      "çĿĽ": 1808,
      "ing": 1809,
      "å¦Ĥä»Ĭ": 1810,
      "æĬ¬": 1811,
      "åĨħå®¹": 1812,
      "ä¸įè¦ģ": 1813,
      "æĹ¢": 1814,
      "ä»·æł¼": 1815,
      "ç¦ı": 1816,
      "åĲĦç§į": 1817,
      "åħ³éĶ®": 1818,
      "äº§åĵģ": 1819,
      "å½©": 1820,
      "æĿ¥äºĨ": 1821,
      "æŀĲ": 1822,
      "æľīäºº": 1823,
      "Ġm": 1824,
      "è¿Ļè¾¹": 1825,
      "å¿ĥä¸Ń": 1826,
      "æĭ¥": 1827,
      "çĥŁ": 1828,
      "èģĬ": 1829,
      "èĤ¯": 1830,
      "å§Ĳ": 1831,
      "æ¯ķ": 1832,
      "æ¤į": 1833,
      "ä½łåı¯ä»¥": 1834,
      "æ´¾": 1835,
      "çķ¥": 1836,
      "åŃĲçļĦ": 1837,
      "æĪĲäºĨ": 1838,
      "ä¸ĢçĤ¹": 1839,
      "éĢı": 1840,
      "éĥ½ä¸į": 1841,
      "ä½įç½®": 1842,
      "Ġf": 1843,
      "è¯·éĹ®": 1844,
      "æľĢè¿ĳ": 1845,
      "çĽŁ": 1846,
      "50": 1847,
      "è¿İ": 1848,
      "æĹ§": 1849,
      "å·¥ä½ľ": 1850,
      "ä¸¤äºº": 1851,
      "çĤ¸": 1852,
      "ç³»ç»Ł": 1853,
      "ç¥ĸ": 1854,
      "çĭĤ": 1855,
      "åĩºçļĦ": 1856,
      "ç¨³": 1857,
      "å¥¹çļĦ": 1858,
      "æıĲé«ĺ": 1859,
      "ç«¯": 1860,
      "èŀ": 1861,
      "ç©ºéĹ´": 1862,
      "åħĦ": 1863,
      "å¹ķ": 1864,
      "å®«": 1865,
      "åĲįåŃĹ": 1866,
      "æĭħ": 1867,
      "åĴĸ": 1868,
      "å®īåħ¨": 1869,
      "å¼ºèĢħ": 1870,
      "çľ¼çĿĽ": 1871,
      "å¤ĦçĲĨ": 1872,
      "æĸ½": 1873,
      "æĿ¥è¯´": 1874,
      "ç¬Ķ": 1875,
      "**": 1876,
      "åĲ¯": 1877,
      "ĪçļĦ": 1878,
      "ä¸ĢèĪ¬": 1879,
      "è´µ": 1880,
      "ä»ĺ": 1881,
      "Ġw": 1882,
      "Ġ--------": 1883,
      "åº·": 1884,
      "å¾Ĳåĩ¤": 1885,
      "åİĨåı²": 1886,
      "æľªæĿ¥": 1887,
      "èĢĮæĺ¯": 1888,
      "éº»": 1889,
      "å¯Ł": 1890,
      "åľ°çĲĥ": 1891,
      "Ġè¯·": 1892,
      "ç»į": 1893,
      "Ġ------------": 1894,
      "æł¸": 1895,
      "ä¿ĿæĮģ": 1896,
      "ä»¿": 1897,
      "å¦ĸ": 1898,
      "è®¾è®¡": 1899,
      "å¾Ĳåĩ¤å¹´": 1900,
      "æ¡Į": 1901,
      "å¿į": 1902,
      "å¯Ĵ": 1903,
      "æ¯ıä¸ª": 1904,
      "ä¸Ģå®ļ": 1905,
      "åĪĨéĴŁ": 1906,
      "å¾ģ": 1907,
      "ç²¾ç¥ŀ": 1908,
      "è¿Ļä½į": 1909,
      "åıªè¦ģ": 1910,
      "çĪ·": 1911,
      "è¯¯": 1912,
      "çłĶç©¶": 1913,
      "åķ¡": 1914,
      "ä¾§": 1915,
      "è½°": 1916,
      "çĮİ": 1917,
      "åİ»äºĨ": 1918,
      "åĪĨæŀĲ": 1919,
      "åĴĸåķ¡": 1920,
      "çĶŁçī©": 1921,
      "çģµéŃĤ": 1922,
      "ĠèĢģ": 1923,
      "âĢĿãĢĤ": 1924,
      "æľįåĬ¡": 1925,
      "å¤§å®¶": 1926,
      "è®¤ä¸º": 1927,
      "um": 1928,
      "è°Ī": 1929,
      "åĵ¥": 1930,
      "æµ®": 1931,
      "èĮĥ": 1932,
      "å¹¶ä¸į": 1933,
      "çĵ¶": 1934,
      "éĩĩ": 1935,
      "å°Ŀè¯ķ": 1936,
      "æī¿": 1937,
      "å¾Īå¿«": 1938,
      "å®ĩ": 1939,
      "å¦Ĥæŀľä½ł": 1940,
      "è¯´è¯Ŀ": 1941,
      "åı¹": 1942,
      "æīįèĥ½": 1943,
      "åī©": 1944,
      "èĤ¡": 1945,
      "å²ģ": 1946,
      "åĿĲåľ¨": 1947,
      "æķĪæŀľ": 1948,
      "åħĪçĶŁ": 1949,
      "ä¸įåĪ°": 1950,
      "ç®±": 1951,
      "è¿Ļæł·çļĦ": 1952,
      "æľºåĻ¨": 1953,
      "éĩĮçļĦ": 1954,
      "çĲĨè§£": 1955,
      "èµ¶": 1956,
      "ä¸Ģä½į": 1957,
      "å°±ç®Ĺ": 1958,
      "ä¸Ģè¾¹": 1959,
      "æĦŁåĪ°": 1960,
      "ä¹ĭéĹ´çļĦ": 1961,
      "å¼±": 1962,
      "å®ģæ¯ħ": 1963,
      "éĥ½æľī": 1964,
      "ç¡®å®ļ": 1965,
      "è¯ĹæŃĮ": 1966,
      "æĪĳåı¯ä»¥": 1967,
      "çĴ": 1968,
      "é¦ĸåħĪ": 1969,
      "æł¹æľ¬": 1970,
      "åłĤ": 1971,
      "è¹": 1972,
      "çºª": 1973,
      "ä»ĭç»į": 1974,
      "ä¸ºä»Ģä¹Ī": 1975,
      "el": 1976,
      "æĿŁ": 1977,
      "åī§": 1978,
      "è¿¹": 1979,
      "æľīä»Ģä¹Ī": 1980,
      "æĬĢèĥ½": 1981,
      "æĮīçħ§": 1982,
      "åħ¸": 1983,
      "éļıçĿĢ": 1984,
      "åī¯": 1985,
      "çĥ§": 1986,
      "é¡»": 1987,
      "åħ°": 1988,
      "å°±åľ¨": 1989,
      "åħ·æľī": 1990,
      "ä¸ŃåĽ½": 1991,
      "éľĩ": 1992,
      "æ¼«": 1993,
      "çľŁæŃ£": 1994,
      "ä¹Łæľī": 1995,
      "ä¸įå¾Ĺ": 1996,
      "åĵªæĢķ": 1997,
      "æķ°éĩı": 1998,
      "æĶ»åĩ»": 1999,
      "å¹¶ä¸Ķ": 2000,
      "æĸ¹åĲĳ": 2001,
      "æ©": 2002,
      "çĦ¶èĢĮ": 2003,
      "åĸĦ": 2004,
      "æ¯Ľ": 2005,
      "æĵį": 2006,
      "èĪŀ": 2007,
      "æĳĨ": 2008,
      "åį±": 2009,
      "å¸¦çĿĢ": 2010,
      "ä¹Łæ²¡": 2011,
      "ä¸īä¸ª": 2012,
      "Ġ+": 2013,
      "è¢ĭ": 2014,
      "æĸĩåĮĸ": 2015,
      "æŀ¶": 2016,
      "å¸®æĪĳ": 2017,
      "Ġæł¹æį®": 2018,
      "çļĦéĤ£": 2019,
      "æ¸Ĭ": 2020,
      "åºŁ": 2021,
      "æĢĢ": 2022,
      "çŃĶæ¡Ī": 2023,
      "Â·Â·Â·Â·": 2024,
      "è¡Ĺ": 2025,
      "çĬ¶æĢģ": 2026,
      "ä»£è¡¨": 2027,
      "æĢĴ": 2028,
      "æĤ¨åı¯ä»¥": 2029,
      "å¯¼èĩ´": 2030,
      "é½Ĳ": 2031,
      "èº«ä¸Ĭ": 2032,
      "Ġl": 2033,
      "é¥Ń": 2034,
      "åĲİçļĦ": 2035,
      "æĪĳä»¬åı¯ä»¥": 2036,
      "æ¬£": 2037,
      "ä¸įéĶĻ": 2038,
      "äº§çĶŁ": 2039,
      "```": 2040,
      "ç¤¾ä¼ļ": 2041,
      "åĿļ": 2042,
      "éĢĥ": 2043,
      "çº·": 2044,
      "ä»£çłģ": 2045,
      "it": 2046,
      "äº¡": 2047,
      "ä¹Łåı¯ä»¥": 2048,
      "ä¼¸": 2049,
      "ç«¹": 2050,
      "æŃ¤åĪ»": 2051,
      "æ¯ĶèµĽ": 2052,
      "èĳĹ": 2053,
      "è¾Ī": 2054,
      "al": 2055,
      "é¢Ŀ": 2056,
      "æĥ³åĪ°": 2057,
      "éĺ´": 2058,
      "éĻ¤äºĨ": 2059,
      "çĿ¡": 2060,
      "èī¯": 2061,
      "èĮ¶": 2062,
      "000": 2063,
      "ç¼º": 2064,
      "åıįåºĶ": 2065,
      "æĦıè¯Ĩ": 2066,
      "å¥ĳ": 2067,
      "çīĻ": 2068,
      "åįĸ": 2069,
      "ç»Īäºİ": 2070,
      "çº¸": 2071,
      "æĬĺ": 2072,
      "å°Ĭ": 2073,
      "çģ°": 2074,
      "æļĸ": 2075,
      "ä¸įä½ı": 2076,
      "è¦ģæ±Ĥ": 2077,
      "è§¦": 2078,
      "å±ŀäºİ": 2079,
      "ä¿ĿæĬ¤": 2080,
      "åı£æ°Ķ": 2081,
      "åı¯æĺ¯": 2082,
      "å°ļ": 2083,
      "ç§»": 2084,
      "åħĥç´ł": 2085,
      "om": 2086,
      "è®¨": 2087,
      "ä¸°": 2088,
      "èĪĴ": 2089,
      "ä¹ĲåĽŃ": 2090,
      "å¸ģ": 2091,
      "è¡¨ç¤º": 2092,
      "æĪĲåĬŁ": 2093,
      "å¾Ĵ": 2094,
      "æ¸ħæ¥ļ": 2095,
      "èļ": 2096,
      "ç§Ĵ": 2097,
      "èĥ¡": 2098,
      "çļĦäºĭæĥħ": 2099,
      "éĺ³åħī": 2100,
      "è½»è½»": 2101,
      "çĽĬ": 2102,
      "è·¯å¹³": 2103,
      "ä»į": 2104,
      "ä¸ºæĤ¨": 2105,
      "åĲ¬åĪ°": 2106,
      "å¹´çļĦ": 2107,
      "ä¸Ģåıª": 2108,
      "èĢħçļĦ": 2109,
      "è´¨éĩı": 2110,
      "ä½ľçĶ¨": 2111,
      "è¡¨çİ°": 2112,
      "ç¦ģ": 2113,
      "Ġç¬¬": 2114,
      "æķ°åŃĹ": 2115,
      "è£Ĥ": 2116,
      "çľĭäºĨ": 2117,
      "Ġç»Ļ": 2118,
      "ï¼ĮâĢĿ": 2119,
      "çĽ®æłĩ": 2120,
      "è´¥": 2121,
      "å®ŀåĬĽ": 2122,
      "èĢ³": 2123,
      "åı¦å¤ĸ": 2124,
      "åģı": 2125,
      "çķª": 2126,
      "ä¼Ĺäºº": 2127,
      "ç¨ĭåºı": 2128,
      "å±ĭ": 2129,
      "è¯·ä½ł": 2130,
      "ç§ĳæĬĢ": 2131,
      "è·ĥ": 2132,
      "å«": 2133,
      "ãĢĤãĢĳ": 2134,
      "ç¾İä¸½": 2135,
      "12": 2136,
      "èĤ¯å®ļ": 2137,
      "çľĭåĲĳ": 2138,
      "åĿı": 2139,
      "ĠĠ": 2140,
      "ç³ĸ": 2141,
      "è¿·": 2142,
      "å°ıæĹ¶": 2143,
      "èŀį": 2144,
      "ä¸ĭä¸Ģ": 2145,
      "å¹»": 2146,
      "ä»¿ä½Ľ": 2147,
      "çĽ¸åħ³": 2148,
      "åŃ©åŃĲ": 2149,
      "æ®¿": 2150,
      "æİ§åĪ¶": 2151,
      "è´Ŀ": 2152,
      "åįļ": 2153,
      "ĠéĤ£": 2154,
      "æķĳ": 2155,
      "å¾®å¾®": 2156,
      "è¯¦": 2157,
      "èĩĤ": 2158,
      "çĽĸ": 2159,
      "æĿĲæĸĻ": 2160,
      "äºĨä¸Ģä¸ª": 2161,
      "çīĩåĪ»": 2162,
      "è´¢": 2163,
      "åıĺå¾Ĺ": 2164,
      "åĨ¬": 2165,
      "ĠèĢĮ": 2166,
      "å°¾": 2167,
      "æĻ¶": 2168,
      "èĦ±": 2169,
      "è¾ĵåħ¥": 2170,
      "éģĹ": 2171,
      "åĶ¯": 2172,
      "æľīè¶£": 2173,
      "å¤©ä¸ĭ": 2174,
      "è´£": 2175,
      "åĩłä¹İ": 2176,
      "çģ¯": 2177,
      "åģ¥åº·": 2178,
      "è®©æĪĳ": 2179,
      "åľ°ä¸Ĭ": 2180,
      "æ´Ľ": 2181,
      "å®ŀçİ°": 2182,
      "åĳ¨åĽ´": 2183,
      "é¢ľèī²": 2184,
      "å¥¥": 2185,
      "æĬĵ": 2186,
      "åį´æĺ¯": 2187,
      "åľ°çļĦ": 2188,
      "å¥Ĺ": 2189,
      "å¿Ĺ": 2190,
      "éĹŃ": 2191,
      "é¤Ĳåİħ": 2192,
      "çļĦåľ°æĸ¹": 2193,
      "ä»¥åĲİ": 2194,
      "è®¡åĪĴ": 2195,
      "çĬ¹": 2196,
      "Ġn": 2197,
      "åºĵ": 2198,
      "å°ıè¯´": 2199,
      "æĦıä¹ī": 2200,
      "è¯¢": 2201,
      "æ¢°": 2202,
      "ä¸Ģä»½": 2203,
      "ä¸įåı¯": 2204,
      "åŃĻ": 2205,
      "çĻ»": 2206,
      "ä¸įå°ĳ": 2207,
      "æĬ±": 2208,
      "30": 2209,
      "éĻĦè¿ĳ": 2210,
      "é£ĺ": 2211,
      "çļĦäºĭ": 2212,
      "å°±åĥı": 2213,
      "and": 2214,
      "Ġ5": 2215,
      "åĨĴ": 2216,
      "Ġthe": 2217,
      "æ¯ķç«Ł": 2218,
      "çĽ®åħī": 2219,
      "å°ĳå¹´": 2220,
      "åĨĻä¸Ģç¯ĩ": 2221,
      "æĬ½": 2222,
      "çĶŁæĪĲä¸Ģä¸ª": 2223,
      "æĳĩå¤´": 2224,
      "ç½ª": 2225,
      "çĥ¦": 2226,
      "ä¸Ģéģĵ": 2227,
      "ç¨į": 2228,
      "çĶ¨äºİ": 2229,
      "éĶĢ": 2230,
      "æĭ¥æľī": 2231,
      "èħ¿": 2232,
      "åĬĽçļĦ": 2233,
      "ic": 2234,
      "èį¡": 2235,
      "åĪĹè¡¨": 2236,
      "yth": 2237,
      "å¦ĤæŀľæĤ¨": 2238,
      "çĪ±æĥħ": 2239,
      "å°¤": 2240,
      "ç¡¬": 2241,
      "çĹĽ": 2242,
      "ĠéĻĪæ±īåįĩ": 2243,
      "ä¼ĳ": 2244,
      "å¤©ç©º": 2245,
      "è½¯": 2246,
      "çº³": 2247,
      "ç±»åŀĭ": 2248,
      "é£Łçī©": 2249,
      "é«ĺçļĦ": 2250,
      "èĭį": 2251,
      "åĶ®": 2252,
      "é»ĳæļĹ": 2253,
      "æĲŃ": 2254,
      "èĤ²": 2255,
      "åı¯èĥ½ä¼ļ": 2256,
      "è´Ńä¹°": 2257,
      "æľīçĤ¹": 2258,
      "è¾ĵåĩº": 2259,
      "è¡Įä¸º": 2260,
      "å®¹æĺĵ": 2261,
      "åĢĴæĺ¯": 2262,
      "çŃĸ": 2263,
      "ä¸įçŁ¥": 2264,
      "ä¹ĺ": 2265,
      "å±ŀæĢ§": 2266,
      "st": 2267,
      "è¾¹çļĦ": 2268,
      "15": 2269,
      "å¿½çĦ¶": 2270,
      "æĪ¿éĹ´": 2271,
      "åĢŁ": 2272,
      "å·ħ": 2273,
      "ç¿»è¯ĳæĪĲ": 2274,
      "èĢĹ": 2275,
      "åħħæ»¡": 2276,
      "å®Ļ": 2277,
      "åĨħçļĦ": 2278,
      "åĪ°åºķ": 2279,
      "å§Ĩ": 2280,
      "Ġä¸įè¿ĩ": 2281,
      "èĻ«": 2282,
      "ãĢĤ\"": 2283,
      "çĩĥ": 2284,
      "åŃ¦çĶŁ": 2285,
      "å¹½": 2286,
      "ython": 2287,
      "éŀ": 2288,
      "ç»ľ": 2289,
      "èŃ": 2290,
      "å¢ŀåĬł": 2291,
      "èĿ": 2292,
      "æł¡": 2293,
      "æł·çļĦ": 2294,
      "ä¸įä»ħ": 2295,
      "ä¸ĢæŃ¥": 2296,
      "int": 2297,
      "æµĵ": 2298,
      "çĶ±äºİ": 2299,
      "å½ķ": 2300,
      "äºĨä¸Ģä¸ĭ": 2301,
      "åİŁæľ¬": 2302,
      "æģ©": 2303,
      "å¤§æ¦Ĥ": 2304,
      "è¿ĩäºĨ": 2305,
      "æ®ĭ": 2306,
      "åľ¨è¿Ļä¸ª": 2307,
      "åį·": 2308,
      "å½ĵçĦ¶åı¯ä»¥": 2309,
      "è¡¥": 2310,
      "ä½łèĥ½": 2311,
      "æŃ£ç¡®": 2312,
      "åĵģçīĮ": 2313,
      "ç¼©": 2314,
      "å°Ĩåħ¶": 2315,
      "å¦Ļ": 2316,
      "ç¡®å®ŀ": 2317,
      "ä¸Ģæ®µ": 2318,
      "åİŁåĽł": 2319,
      "è®Ń": 2320,
      "å®ĩå®Ļ": 2321,
      "è¡¨æĥħ": 2322,
      "èº«ä»½": 2323,
      "è¯¦ç»Ĩ": 2324,
      "è¿Ķ": 2325,
      "å¿ĺ": 2326,
      "èģĶçĽŁ": 2327,
      "æĹłè®º": 2328,
      "æĺ¯ä¸ª": 2329,
      "åĩºæīĭ": 2330,
      "å¥½äºĨ": 2331,
      "ç¼ĺ": 2332,
      "èµµ": 2333,
      "è£ħå¤ĩ": 2334,
      "æŀļ": 2335,
      "åĩ¡": 2336,
      "å²Ľ": 2337,
      "åľ°æĸ¹": 2338,
      "è¿ĲåĬ¨": 2339,
      "å·¦åı³": 2340,
      "åĩºåİ»": 2341,
      "æ£®": 2342,
      "å¾Ħ": 2343,
      "æļĤ": 2344,
      "è¿ľå¤Ħ": 2345,
      "å¹ħ": 2346,
      "æģ¢": 2347,
      "å½»": 2348,
      "å£ģ": 2349,
      "çŃĳ": 2350,
      "èŃ¦": 2351,
      "èĦī": 2352,
      "åĽ°": 2353,
      "æĤ¬": 2354,
      "åīįçļĦ": 2355,
      "æ¶Īæģ¯": 2356,
      "ç§ģ": 2357,
      "èĩ³å°ĳ": 2358,
      "æŁĵ": 2359,
      "æĸĩæĺİ": 2360,
      "æ±ª": 2361,
      "æĪĳä¼ļ": 2362,
      "ç§Ģ": 2363,
      "çĶ¨æĪ·": 2364,
      "æ³Ľ": 2365,
      "èĲ¨": 2366,
      "é¦Ĩ": 2367,
      "å§ĳ": 2368,
      "æ´Ĺ": 2369,
      "éª¤": 2370,
      "åľ¨äºĨ": 2371,
      "====": 2372,
      "å¤įæĿĤ": 2373,
      "æľīåħ³": 2374,
      "çļĦéĹ®é¢ĺ": 2375,
      "æĦ£": 2376,
      "éķ¿çļĦ": 2377,
      "Ġ4": 2378,
      "çļ±": 2379,
      "éĢĲæ¸Ĳ": 2380,
      "äºĨä¸ª": 2381,
      "Ġto": 2382,
      "ç®¡çĲĨ": 2383,
      "æĽ´å¥½": 2384,
      "ç¼ĵç¼ĵ": 2385,
      "çļĦæĥħåĨµ": 2386,
      "çĥĪ": 2387,
      "Ġy": 2388,
      "å¤§éĩı": 2389,
      "èĭ±æĸĩ": 2390,
      "åľĪ": 2391,
      "åĸĬ": 2392,
      "è±Ĩ": 2393,
      "èĻİ": 2394,
      "ä»·åĢ¼": 2395,
      "çľĭæĿ¥": 2396,
      "æ¨¡åŀĭ": 2397,
      "åĮħåĲ«": 2398,
      "æĩĤ": 2399,
      "å¸ĿåĽ½": 2400,
      "åĩĿ": 2401,
      "æĽ´å¤ļçļĦ": 2402,
      "ä»¥ä¸º": 2403,
      "éľĢæ±Ĥ": 2404,
      "å¥³åŃĲ": 2405,
      "ä¸Ńå¿ĥ": 2406,
      "åĪ¤æĸŃ": 2407,
      "ç§ĳåŃ¦": 2408,
      "åª": 2409,
      "åĲ´": 2410,
      "èĦ¸èī²": 2411,
      "ä¹ĭä¸Ń": 2412,
      "ä¸įçĶ¨": 2413,
      "ä¼¦": 2414,
      "æģ¢å¤į": 2415,
      "æĺİçĻ½": 2416,
      "éĤ£ä½į": 2417,
      "åĵªéĩĮ": 2418,
      "ç©ºæ°Ķ": 2419,
      "å¿ħé¡»": 2420,
      "åĲįçļĦ": 2421,
      "å±ħçĦ¶": 2422,
      "ç§¦": 2423,
      "åĨĽåĽ¢": 2424,
      "ç»ĩ": 2425,
      "æīĭä¸Ń": 2426,
      "ä¸²": 2427,
      "æľµ": 2428,
      "åĮ»çĸĹ": 2429,
      "Ġ(": 2430,
      "é£İæł¼": 2431,
      "åĨįæ¬¡": 2432,
      "çªĹ": 2433,
      "éĶĭ": 2434,
      "éħ±": 2435,
      "éĽ¾": 2436,
      "æĮĳæĪĺ": 2437,
      "å°±ä¼ļ": 2438,
      "æĬ«": 2439,
      "ä½ľåĵģ": 2440,
      "æĶ¿": 2441,
      "äº«åıĹ": 2442,
      "æĥľ": 2443,
      "æĢ§çļĦ": 2444,
      "æª": 2445,
      "æİ¢ç´¢": 2446,
      "èĬĴ": 2447,
      "éĢĶ": 2448,
      "åĩ½": 2449,
      "æĽ¿": 2450,
      "æŃ¦èĢħ": 2451,
      "çĮľ": 2452,
      "è¿ħ": 2453,
      "æ»©": 2454,
      "è¿Ļåı¥è¯Ŀ": 2455,
      "æķ¬": 2456,
      "åŃ¤": 2457,
      "èķ": 2458,
      "ä¸ĬäºĨ": 2459,
      "çıŃ": 2460,
      "ä¹Łä¼ļ": 2461,
      "å»ºçŃĳ": 2462,
      "èĩªçĶ±": 2463,
      "AI": 2464,
      "æľĹ": 2465,
      "éģį": 2466,
      "èĤ©": 2467,
      "å¾¡": 2468,
      "æĸ¹çļĦ": 2469,
      "æ±ĩ": 2470,
      "æĪĲçļĦ": 2471,
      "æĹĭ": 2472,
      "åĨ³å®ļ": 2473,
      "ä¹ĭåĬĽ": 2474,
      "ç»Ļå®ļçļĦ": 2475,
      "å°ĸ": 2476,
      "èµ·äºĨ": 2477,
      "èĦ¸ä¸Ĭ": 2478,
      "è¿ĺåľ¨": 2479,
      "ä¸ĢåĲį": 2480,
      "å¥ĳçº¦": 2481,
      "èº«å½±": 2482,
      "å¥ĸ": 2483,
      "éĴ¢": 2484,
      "è´§": 2485,
      "åŁºæľ¬": 2486,
      "æ¤įçī©": 2487,
      "åģ·": 2488,
      "è¢Ń": 2489,
      "æİ¥çĿĢ": 2490,
      "æīĵå¼Ģ": 2491,
      "å¸ĥå¸ĥ": 2492,
      "ç¹": 2493,
      "äººéĥ½": 2494,
      "æ§": 2495,
      "å´Ķ": 2496,
      "å¾Īå¥½": 2497,
      "æ°ı": 2498,
      "çĤ®": 2499,
      "Ġåı¯": 2500,
      "ç»ķ": 2501,
      "å¼ĥ": 2502,
      "æĶ¯æĮģ": 2503,
      "èµı": 2504,
      "èīºæľ¯": 2505,
      "å»¶": 2506,
      "é¢ĳ": 2507,
      "æĬµ": 2508,
      "æĿ¥è¶Ĭ": 2509,
      "ç»ª": 2510,
      "åĬ±": 2511,
      "çľĭçľĭ": 2512,
      "å®ĥä»¬çļĦ": 2513,
      "æĴŀ": 2514,
      "æ·±æ¸Ĭ": 2515,
      "èį£": 2516,
      "æķĮäºº": 2517,
      "æ¶Īå¤±": 2518,
      "è°¢è°¢": 2519,
      "çªŁ": 2520,
      "èįĴ": 2521,
      "è¶ĬæĿ¥è¶Ĭ": 2522,
      "æıĲç¤º": 2523,
      "åĩıå°ĳ": 2524,
      "çľŁæĺ¯": 2525,
      "èģĮä¸ļ": 2526,
      "ä¸Ģé¦ĸ": 2527,
      "åįĪ": 2528,
      "ra": 2529,
      "çī©åĵģ": 2530,
      "ä¸Ńæĸĩ": 2531,
      "è°ĵ": 2532,
      "å¦¹": 2533,
      "æģĴ": 2534,
      "çĮĽ": 2535,
      "æ·»": 2536,
      "è°±": 2537,
      "åĿ¦": 2538,
      "åĭĩ": 2539,
      "çŁ¥è¯Ĩ": 2540,
      "æŃ»äºĨ": 2541,
      "ä¸įäºĨ": 2542,
      "æ»ļ": 2543,
      "å¿Ĩ": 2544,
      "æĬĹ": 2545,
      "å®ĭ": 2546,
      "è¿ĺæ²¡": 2547,
      "ed": 2548,
      "æĶ¾åľ¨": 2549,
      "é¸£": 2550,
      "èĢĢ": 2551,
      "ä¸ĭåİ»": 2552,
      "åĲ¹": 2553,
      "çĸ¯": 2554,
      "ä¼łæĿ¥": 2555,
      "çľ¼ç¥ŀ": 2556,
      "åĬŀæ³ķ": 2557,
      "æ¸©åº¦": 2558,
      "ä¹¡": 2559,
      "æī¬": 2560,
      "æįŁ": 2561,
      "åİļ": 2562,
      "ä¼´": 2563,
      "åĩ½æķ°": 2564,
      "ä¹ĭå¤ĸ": 2565,
      "åįł": 2566,
      "éĥ½ä¼ļ": 2567,
      "èĥĸ": 2568,
      "çī©è´¨": 2569,
      "ç¬ĳçĿĢ": 2570,
      "ä¸Ģä¸ªäºº": 2571,
      "ä»¥ä¸ĭæĺ¯": 2572,
      "ä¼°": 2573,
      "åĳµ": 2574,
      "çļĦæīĭ": 2575,
      "å®ŀéĻħ": 2576,
      "æĪĺäºī": 2577,
      "éļıåĲİ": 2578,
      "æĹħè¡Į": 2579,
      "ç¬ĳäºĨ": 2580,
      "æī«": 2581,
      "å¥Ķ": 2582,
      "éĥ½æ²¡": 2583,
      "ç¹ģ": 2584,
      "åĴ±": 2585,
      "æĳ¸": 2586,
      "éķľ": 2587,
      "å£®": 2588,
      "ç»ĵæŀĦ": 2589,
      "ç«¥": 2590,
      "ç¥ŀç§ĺ": 2591,
      "æ°Ķæģ¯": 2592,
      "èµ«": 2593,
      "ç«ŁçĦ¶": 2594,
      "ä¸Ģçľ¼": 2595,
      "ç´«": 2596,
      "å¯»æī¾": 2597,
      "æ¶Į": 2598,
      "æĪĺåľº": 2599,
      "åĵªäºĽ": 2600,
      "åħ´è¶£": 2601,
      "åį³åı¯": 2602,
      "ä¸įå¤ļ": 2603,
      "éĴĪ": 2604,
      "Ġo": 2605,
      "è¦ģæĺ¯": 2606,
      "éĻ·": 2607,
      "æĦ¿æĦı": 2608,
      "æĽ¾ç»ı": 2609,
      "æĥ³æ³ķ": 2610,
      "æĮģç»Ń": 2611,
      "æ®Ĭ": 2612,
      "æĽ¹": 2613,
      "ç¨ĭåº¦": 2614,
      "è¯ļ": 2615,
      "ĠÃ": 2616,
      "çļĦå£°éŁ³": 2617,
      "åĮºåŁŁ": 2618,
      "å¼Ħ": 2619,
      "ç¡®ä¿Ŀ": 2620,
      "è®©ä»ĸ": 2621,
      "ä¸ĢæĿ¡": 2622,
      "ç¾İåĽ½": 2623,
      "æĨ": 2624,
      "è°·": 2625,
      "æī§": 2626,
      "éĶħ": 2627,
      "éĿ¢ç§¯": 2628,
      "éĽ¶": 2629,
      "éªĤ": 2630,
      "ä¸Ģçīĩ": 2631,
      "æ³¥": 2632,
      "æľ¬æºĲ": 2633,
      "åĪ©çĶ¨": 2634,
      "è§Ĵèī²": 2635,
      "è¢ĸ": 2636,
      "19": 2637,
      "æĿ¥èĩª": 2638,
      "è¡ĮåĬ¨": 2639,
      "lo": 2640,
      "ä¸įå¥½": 2641,
      "ä¾¿æĺ¯": 2642,
      "ä½ĵéªĮ": 2643,
      "åľ¨éĤ£": 2644,
      "çĽĳ": 2645,
      "æĹħæ¸¸": 2646,
      "èµ°äºĨ": 2647,
      "åĹ¯": 2648,
      "åĬłä¸Ĭ": 2649,
      "éĺħ": 2650,
      "æĮĤ": 2651,
      "éľ¸": 2652,
      "æľºæ¢°": 2653,
      "éĩįæĸ°": 2654,
      "æĿ¨": 2655,
      "æ½ľ": 2656,
      "åľºæĻ¯": 2657,
      "éĤ£å°±": 2658,
      "å°ıçļĦ": 2659,
      "æĥĳ": 2660,
      "åĬŁèĥ½": 2661,
      "æĭ¼": 2662,
      "æŃĮæĽ²": 2663,
      "éĩįè¦ģçļĦ": 2664,
      "çĭ¼": 2665,
      "èº«è¾¹": 2666,
      "ä½³": 2667,
      "éĹ¹": 2668,
      "å½ĵå¹´": 2669,
      "ä¼į": 2670,
      "ç¥¨": 2671,
      "æīĺ": 2672,
      "å¤º": 2673,
      "åĩĨç¡®": 2674,
      "æ£Ģ": 2675,
      "è¿ĺåı¯ä»¥": 2676,
      "å°±èĥ½": 2677,
      "å°¸": 2678,
      "ç¾İé£Ł": 2679,
      "çİĦ": 2680,
      "è½®åĽŀ": 2681,
      "as": 2682,
      "è¿Ļæ®µ": 2683,
      "åħ¨çĲĥ": 2684,
      "éĥ½åľ¨": 2685,
      "æ²Ī": 2686,
      "æ±½": 2687,
      "æ¶²": 2688,
      "èµ·èº«": 2689,
      "åį±éĻ©": 2690,
      "èħ°": 2691,
      "æľ«": 2692,
      "å§ĵ": 2693,
      "æĿ¡ä»¶": 2694,
      "å½»åºķ": 2695,
      "éħ¸": 2696,
      "æĲľ": 2697,
      "Ġin": 2698,
      "è¶³å¤Ł": 2699,
      "æ¥ļåħī": 2700,
      "è±ª": 2701,
      "åĲŀ": 2702,
      "åıĮæīĭ": 2703,
      "æ©Ļ": 2704,
      "ç»ĵæĿŁ": 2705,
      "Ġå¦Ĥæŀľ": 2706,
      "éĿ¢å¯¹": 2707,
      "èĮĥåĽ´": 2708,
      "èī¾": 2709,
      "æ´ģ": 2710,
      "çĶľ": 2711,
      "æĢĿèĢĥ": 2712,
      "å¨ľ": 2713,
      "èµĦæºĲ": 2714,
      "ä¸¢": 2715,
      "èª": 2716,
      "çī¹åĪ«": 2717,
      "åĪļåĪļ": 2718,
      "ç³ķ": 2719,
      "éĢĴ": 2720,
      "éģ¿åħį": 2721,
      "æĵįä½ľ": 2722,
      "æĺİæĺ¾": 2723,
      "ä»¥ä¸Ĭ": 2724,
      "å¹¼": 2725,
      "åħ³æ³¨": 2726,
      "åĩºæĿ¥çļĦ": 2727,
      "æĮ¡": 2728,
      "ç¡Ģ": 2729,
      "æĴĴ": 2730,
      "..": 2731,
      "èĥ¸": 2732,
      "éĹ²": 2733,
      "è¿Ļç¯ĩ": 2734,
      "æĸ°éĹ»": 2735,
      "ç§¯æŀģ": 2736,
      "åĥıæĺ¯": 2737,
      "è¿ħéĢŁ": 2738,
      "çº¯": 2739,
      "ro": 2740,
      "ĠæĿİ": 2741,
      "åŃ¦éĻ¢": 2742,
      "Ġis": 2743,
      "çĽ¯": 2744,
      "å°±è¦ģ": 2745,
      "è¾¾åĪ°": 2746,
      "éĶģ": 2747,
      "æĶ¹åıĺ": 2748,
      "åĬª": 2749,
      "åĲįç§°": 2750,
      "å¥Ī": 2751,
      "ä¸ĭäºĨ": 2752,
      "æ¶ī": 2753,
      "åĬ¨ä½ľ": 2754,
      "è¯´äºĨ": 2755,
      "åŃĶ": 2756,
      "åŁºç¡Ģ": 2757,
      "æĮº": 2758,
      "çĭł": 2759,
      "çĽ¸ä¿¡": 2760,
      "å½ĵæĹ¶": 2761,
      "åĪĻæĺ¯": 2762,
      "ä¹Į": 2763,
      "æµİ": 2764,
      "åģ¶": 2765,
      "åĩĢ": 2766,
      "æľīäºĨ": 2767,
      "å¸ĥå¸ĥæ±ª": 2768,
      "åĽº": 2769,
      "Ġå°ı": 2770,
      "è¿ĺèĥ½": 2771,
      "çģ¾": 2772,
      "éļĶ": 2773,
      "æĪĸè®¸": 2774,
      "åĪĽä½ľ": 2775,
      "åĩŃ": 2776,
      "ç»ıåİĨ": 2777,
      "ä¾µ": 2778,
      "åīĤ": 2779,
      "æķ°åŃ¦": 2780,
      "æĹ¢çĦ¶": 2781,
      "æ¢ģ": 2782,
      "è£´": 2783,
      "æİ¥ä¸ĭæĿ¥": 2784,
      "è¯´çĿĢ": 2785,
      "è¡ĮæĺŁ": 2786,
      "ä½įäºİ": 2787,
      "åĪĽéĢł": 2788,
      "Ġh": 2789,
      "åľ¨è¿ĻéĩĮ": 2790,
      "å¤ªå¤ļ": 2791,
      "åĢ¼å¾Ĺ": 2792,
      "ä¸¤ä½į": 2793,
      "åĵĪåĵĪ": 2794,
      "çļĦèĢģ": 2795,
      "éĥĳ": 2796,
      "æ¨ª": 2797,
      "éĵº": 2798,
      "ä¹Łè®¸": 2799,
      "çĶ¨çļĦ": 2800,
      "ä¼łç»Ł": 2801,
      "æĪ´": 2802,
      "èĭ¥æĺ¯": 2803,
      "ï¼īãĢĤ": 2804,
      "æ±ł": 2805,
      "ä»°": 2806,
      "çĽ´åĪ°": 2807,
      "æĭĶ": 2808,
      "è¾ĳ": 2809,
      "åļ": 2810,
      "ä»¶äºĭ": 2811,
      "Python": 2812,
      "è®¡ç®Ĺæľº": 2813,
      "æĬ¹": 2814,
      "æ²»çĸĹ": 2815,
      "èĻ½": 2816,
      "ä»¤äºº": 2817,
      "ĠãĢĮ": 2818,
      "åľ¨ä¸Ģèµ·": 2819,
      "è¾Ĩ": 2820,
      "å§ľ": 2821,
      "å®¶åºŃ": 2822,
      "æĹ¦": 2823,
      "çıł": 2824,
      "çļĦå¿ĥ": 2825,
      "çī¹æ®Ĭ": 2826,
      "çľģ": 2827,
      "æ½®": 2828,
      "è¯´æĺİ": 2829,
      "çļĦç¥ŀ": 2830,
      "æĻ®éĢļ": 2831,
      "å£«åħµ": 2832,
      "éĥģ": 2833,
      "è®©æĪĳä»¬": 2834,
      "çĤĴ": 2835,
      "é¼ĵ": 2836,
      "å¹¿æ³Ľ": 2837,
      "Ġä¸į": 2838,
      "çī¹çĤ¹": 2839,
      "æľīçļĦ": 2840,
      "è¿ĺè¦ģ": 2841,
      "çľŁå®ŀ": 2842,
      "èµŀ": 2843,
      "éº¦": 2844,
      "å°¤åħ¶": 2845,
      "è²": 2846,
      "çĨĬ": 2847,
      "æķı": 2848,
      "é»ĳæĺŁ": 2849,
      "è¡¡": 2850,
      "æĦıå¤ĸ": 2851,
      "ä½łæĺ¯": 2852,
      "æ¤ħ": 2853,
      "èĢĲ": 2854,
      "çĺ": 2855,
      "æģĲæĢķ": 2856,
      "ä¸ĢåĪĩ": 2857,
      "æŃ¦åĻ¨": 2858,
      "çİ°ä»£": 2859,
      "æĿ¥åĪ°": 2860,
      "ä¸¹": 2861,
      "å¤§äºº": 2862,
      "èĢĮè¨Ģ": 2863,
      "60": 2864,
      "æ¾": 2865,
      "äºĭå®ŀ": 2866,
      "æ¯ģ": 2867,
      "çĶµåŃĲ": 2868,
      "è¯´çļĦ": 2869,
      "æĽ´å¥½åľ°": 2870,
      "çĦ°": 2871,
      "è¸ı": 2872,
      "åĪ°çļĦ": 2873,
      "è±«": 2874,
      "åºĬ": 2875,
      "ä»İèĢĮ": 2876,
      "åŃ£èĬĤ": 2877,
      "ï¼īï¼Į": 2878,
      "ï½": 2879,
      "é»ĳèī²": 2880,
      "ion": 2881,
      "å®ŀåľ¨": 2882,
      "æľīçĿĢ": 2883,
      "åıĺæĪĲ": 2884,
      "å¸¦æĿ¥": 2885,
      "ç»Ļåĩº": 2886,
      "è¯¸": 2887,
      "åĪĨåĪ«": 2888,
      "è§ģçļĦ": 2889,
      "et": 2890,
      "åħ¨éĥ¨": 2891,
      "ç»ıéªĮ": 2892,
      "çĭ¬çī¹": 2893,
      "è¿ĶåĽŀ": 2894,
      "æŁ³": 2895,
      "å¯¹æīĭ": 2896,
      "çĽ®åīį": 2897,
      "é¼ł": 2898,
      "å±ı": 2899,
      "çĤ¹äºĨ": 2900,
      "æĦŁè°¢": 2901,
      "ç®Ĺæĺ¯": 2902,
      "ä¸įæķ¢": 2903,
      "å¸Ń": 2904,
      "æ»ĳ": 2905,
      "æ²īé»ĺ": 2906,
      "çĽĲ": 2907,
      "os": 2908,
      "ä½©": 2909,
      "ä¸»åĬ¨": 2910,
      "å§ĳå¨ĺ": 2911,
      "åĨ¥": 2912,
      "èĦĨ": 2913,
      "ä¸ºä½ķ": 2914,
      "ä¹Łå°±æĺ¯": 2915,
      "ç½ĳç»ľ": 2916,
      "é©¶": 2917,
      "çıį": 2918,
      "æ³¡": 2919,
      "å·¥åħ·": 2920,
      "å¿«éĢŁ": 2921,
      "åĵ¦": 2922,
      "çī¹å¾ģ": 2923,
      "èĪª": 2924,
      "å¹¶æ²¡æľī": 2925,
      "çļĦå½±åĵį": 2926,
      "åĲ¸å¼ķ": 2927,
      "åŃĹç¬¦": 2928,
      "èĢĮå·²": 2929,
      "å¤§åĪ©": 2930,
      "ä¸įå¤ª": 2931,
      "åīĳä»Ļ": 2932,
      "çĽĽ": 2933,
      "__": 2934,
      "æ³ī": 2935,
      "çľĭèµ·æĿ¥": 2936,
      "åįı": 2937,
      "ç»Ļä½ł": 2938,
      "å®½": 2939,
      "æľīä¸Ģä¸ª": 2940,
      "åĵªä¸ª": 2941,
      "åı£æĦŁ": 2942,
      "ç³Ĭ": 2943,
      "èº«åĲİ": 2944,
      "æĹłæķ°": 2945,
      "æ£ĭ": 2946,
      "å½¢æĪĲ": 2947,
      "åĩºçİ°åľ¨": 2948,
      "åĢį": 2949,
      "è·ŁçĿĢ": 2950,
      "è¿Ļä¸ªéĹ®é¢ĺ": 2951,
      "éĺ»": 2952,
      "æĿ°": 2953,
      "åİī": 2954,
      "åĮĹåĩī": 2955,
      "åľ°çªŁ": 2956,
      "è¯º": 2957,
      "ç©ºä¸Ń": 2958,
      "il": 2959,
      "ï½ŀ": 2960,
      "çľ¼åīį": 2961,
      "å®¶çļĦ": 2962,
      "åĴ±ä»¬": 2963,
      "éĽĦ": 2964,
      "æŃ¥éª¤": 2965,
      "éĩĳå±ŀ": 2966,
      "æīİ": 2967,
      "åł¡": 2968,
      "åħ¬å¼ı": 2969,
      "éĽħ": 2970,
      "ä½ıäºĨ": 2971,
      "èģĶç³»": 2972,
      "è¿ª": 2973,
      "æīĢåľ¨": 2974,
      "åĤ¨": 2975,
      "æ°§": 2976,
      "å¿ĥéĩĮ": 2977,
      "ac": 2978,
      "Ġand": 2979,
      "æĭĸ": 2980,
      "äº¤éĢļ": 2981,
      "é»İ": 2982,
      "å¹³åĿĩ": 2983,
      "çĶ·äºº": 2984,
      "æ¯Ĵ": 2985,
      "æĺ¾çĦ¶": 2986,
      "åĩ¯": 2987,
      "åĲĮæł·": 2988,
      "ä¸įåĨį": 2989,
      "ä¼Ĭ": 2990,
      "çº¢èī²": 2991,
      "èº²": 2992,
      "æĤł": 2993,
      "æĥ¯": 2994,
      "å¯Ĥ": 2995,
      "æ°Ľ": 2996,
      "ç®ĢåįķçļĦ": 2997,
      "æĪª": 2998,
      "åłĨ": 2999,
      "çīĽå¥¶": 3000,
      "ç»Ŀå¯¹": 3001,
      "å¦Ī": 3002,
      "æľīæīĢ": 3003,
      "æľīå¾Īå¤ļ": 3004,
      "åĺĽ": 3005,
      "ç«ĭåį³": 3006,
      "å¼ºå¤§": 3007,
      "ent": 3008,
      "èĩªèº«": 3009,
      "ä¸°å¯Į": 3010,
      "æĥ³è±¡": 3011,
      "åķĨåĵģ": 3012,
      "ç±»ä¼¼": 3013,
      "çħ®": 3014,
      "åºĻ": 3015,
      "ç¾½": 3016,
      "æ¯ıå¤©": 3017,
      "åºĶè¯¥æĺ¯": 3018,
      "çĬ¹è±«": 3019,
      "Ġå¥¹": 3020,
      "æ¬¢è¿İ": 3021,
      "éĤ£æĺ¯": 3022,
      "åĽŀæĿ¥": 3023,
      "åıĮæĸ¹": 3024,
      "çļĦä¿¡æģ¯": 3025,
      "éŃı": 3026,
      "é©¾": 3027,
      "å¥ĭ": 3028,
      "æ±ģ": 3029,
      "çĿĢä¸Ģ": 3030,
      "è¦": 3031,
      "æī¹": 3032,
      "25": 3033,
      "é¥°": 3034,
      "pr": 3035,
      "æĻĥ": 3036,
      "æ¶Ľ": 3037,
      "ĠC": 3038,
      "ä¸Ģç¯ĩ": 3039,
      "èİī": 3040,
      "èĥ½åĲ¦": 3041,
      "ç¥Ŀ": 3042,
      "èĬĿ": 3043,
      "ä¹Łæ²¡æľī": 3044,
      "èĩªåĬ¨": 3045,
      "è®Ńç»ĥ": 3046,
      "éĢ¼": 3047,
      "æ¶ĪèĢĹ": 3048,
      "åĽ¢éĺŁ": 3049,
      "å¥ĳçº¦èĢħ": 3050,
      "éŃĶæ³ķ": 3051,
      "ä¼ģ": 3052,
      "åĢ¾": 3053,
      "æĭħå¿ĥ": 3054,
      "æīĭæľº": 3055,
      "æ¸ħæĻ": 3056,
      "ĠS": 3057,
      "å®£": 3058,
      "åĳĨ": 3059,
      "æĭŁ": 3060,
      "èĽĩ": 3061,
      "ä¹Łå°±": 3062,
      "æīĵç®Ĺ": 3063,
      "åĲ¼": 3064,
      "å¦ĤåĲĮ": 3065,
      "æĸ¹éĿ¢çļĦ": 3066,
      "éĿ¢åīį": 3067,
      "æ¢ħ": 3068,
      "æŃ£å¸¸": 3069,
      "Ġyou": 3070,
      "æ¬²": 3071,
      "åį¢": 3072,
      "æĸ¹æ¡Ī": 3073,
      "åĬªåĬĽ": 3074,
      "åĲĪä½ľ": 3075,
      "18": 3076,
      "æĸĩåŃ¦": 3077,
      "å®ľ": 3078,
      "æ¼Ĥ": 3079,
      "è¡ĮçļĦ": 3080,
      "çĽ¸å¯¹": 3081,
      "un": 3082,
      "è¾£": 3083,
      "é¡¿æĹ¶": 3084,
      "çĥĤ": 3085,
      "çļĦé«ĺ": 3086,
      "çĽ¾": 3087,
      "é¢ĺçĽ®": 3088,
      "äºĨä¸ĢäºĽ": 3089,
      "æŃ»äº¡": 3090,
      "çĶŁçļĦ": 3091,
      "éĶĻè¯¯": 3092,
      "ä¼¯": 3093,
      "è¿ĻäºĽäºº": 3094,
      "ç´¯": 3095,
      "ç¢°": 3096,
      "èĦĳè¢ĭ": 3097,
      "èĶ¬": 3098,
      "å¤©åľ°": 3099,
      "ç®Ĺæ³ķ": 3100,
      "å°±åı¯ä»¥": 3101,
      "éĿ¢ä¸Ĭ": 3102,
      "ç¾Ĭ": 3103,
      "ve": 3104,
      "åĨł": 3105,
      "æīįæĺ¯": 3106,
      "æĦī": 3107,
      "æ¡¥": 3108,
      "çĵľ": 3109,
      "æĳĦ": 3110,
      "æĳĺ": 3111,
      "ut": 3112,
      "åı¯èĥ½æĺ¯": 3113,
      "å°ĺ": 3114,
      "è¯Ħè®º": 3115,
      "æĬ¢": 3116,
      "èħ¾": 3117,
      "Ġ8": 3118,
      "åĳ³éģĵ": 3119,
      "am": 3120,
      "æĥ¨": 3121,
      "çĪ¬": 3122,
      "åĲķ": 3123,
      "éªĬ": 3124,
      "çľ¯": 3125,
      "äººçī©": 3126,
      "äºİæĺ¯": 3127,
      "ä¾ĿçĦ¶": 3128,
      "åĬ³": 3129,
      "è¦Ĩ": 3130,
      "ç»Ħç»ĩ": 3131,
      "å¦®": 3132,
      "çĬ¯": 3133,
      "ĠéŁ©èĲ§": 3134,
      "åĴ¬": 3135,
      "æĳ©": 3136,
      "ä»ĩ": 3137,
      "æŁĦ": 3138,
      "è®©ä½ł": 3139,
      "æ¤Ĵ": 3140,
      "Ġå¾Ĳåĩ¤å¹´": 3141,
      "è¿Ļå®¶ä¼Ļ": 3142,
      "æĢ§åĴĮ": 3143,
      "ä¸īäºº": 3144,
      "çīĪ": 3145,
      "å£°éģĵ": 3146,
      "æĲŀ": 3147,
      "æľĢå¤§çļĦ": 3148,
      "æī©": 3149,
      "é¥¼": 3150,
      "æ°ĶåĢĻ": 3151,
      "åĳĪ": 3152,
      "ç»ıåħ¸": 3153,
      "ä¸ģ": 3154,
      "ä¸ĢèĦ¸": 3155,
      "ä¸Ĭåİ»": 3156,
      "æĦıå¤§åĪ©": 3157,
      "è¯Ħä»·": 3158,
      "åĮĹäº¬": 3159,
      "çĪĨåıĳ": 3160,
      "æĺ¯ä¸įæĺ¯": 3161,
      "åıĹåĪ°": 3162,
      "åŃĹæ¯į": 3163,
      "ä¸įåľ¨": 3164,
      "çľ¸": 3165,
      "éĢīæīĭ": 3166,
      "çĹķ": 3167,
      "åĲ¬è¯´": 3168,
      "ä»įçĦ¶": 3169,
      "æľ±": 3170,
      "åĲĲ": 3171,
      "å°º": 3172,
      "åĶ¤": 3173,
      "ä¿®å£«": 3174,
      "äºĮåįģ": 3175,
      "è®¯": 3176,
      "è·¯ä¸Ĭ": 3177,
      "éĺħè¯»": 3178,
      "æĶ¾æĿ¾": 3179,
      "èĵĿèī²": 3180,
      "æĥħç»ª": 3181,
      "ç²Ĵ": 3182,
      "åĪĥ": 3183,
      "æ±¤": 3184,
      "èĳ±": 3185,
      "å»ºç«ĭ": 3186,
      "æıĲåıĸ": 3187,
      "åħ¬éĩĮ": 3188,
      "pp": 3189,
      "åĩºä¸Ģä¸ª": 3190,
      "çĦ¦": 3191,
      "æĽ´æĺ¯": 3192,
      "çļĦæ°´": 3193,
      "çĪµ": 3194,
      "åĪ·": 3195,
      "æ±Łæ¹ĸ": 3196,
      "ç±į": 3197,
      "çĪ½": 3198,
      "åĲĽèİ«": 3199,
      "çľ¼ä¸Ń": 3200,
      "è¿ĩç¨ĭä¸Ń": 3201,
      "å¿įä¸įä½ı": 3202,
      "ä¿ĥ": 3203,
      "èµ¢": 3204,
      "éĢīé¡¹": 3205,
      "æ¸©æļĸ": 3206,
      "ä¹ĭåľ°": 3207,
      "è½½": 3208,
      "åĲĽèİ«ç¬ĳ": 3209,
      "å¤©çİĭ": 3210,
      "å¦Ĥä¸ĭ": 3211,
      "åħ´æ¬£": 3212,
      "åĪ¶éĢł": 3213,
      "ä¸įç®¡": 3214,
      "æĿĳ": 3215,
      "æĺ¨": 3216,
      "æŀ«": 3217,
      "å®Ĺå¸Ī": 3218,
      "éĶĲ": 3219,
      "åīĳä¿®": 3220,
      "ç¿¼": 3221,
      "è§Ĥå¯Ł": 3222,
      "é¾Ħ": 3223,
      "æĴĳ": 3224,
      "è²Į": 3225,
      "å£³": 3226,
      "çĶ°": 3227,
      "èĢģäºº": 3228,
      "ç«ĭåĪ»": 3229,
      "æİĴåºı": 3230,
      "æĪĳä»¬éľĢè¦ģ": 3231,
      "Â·Â·Â·Â·Â·Â·": 3232,
      "å¦ĩ": 3233,
      "Ġg": 3234,
      "åĶ¯ä¸Ģ": 3235,
      "éļĨ": 3236,
      "éŀĭ": 3237,
      "æµ©": 3238,
      "éĺŁçļĦ": 3239,
      "éº»çĥ¦": 3240,
      "äºĨåı£æ°Ķ": 3241,
      "èĸĦ": 3242,
      "ä¸Ģåº§": 3243,
      "äºĭä»¶": 3244,
      "Ġå¤§": 3245,
      "Ġä¸º": 3246,
      "éķ¿åº¦": 3247,
      "å¥ı": 3248,
      "åħ·ä½ĵçļĦ": 3249,
      "è£´éĴ±": 3250,
      "ç®Ń": 3251,
      "æıĴ": 3252,
      "im": 3253,
      "ç»ıå¸¸": 3254,
      "å®īæİĴ": 3255,
      "èĶ¬èıľ": 3256,
      "ĠâĢľâĢ¦âĢ¦": 3257,
      "èĢģå¤´": 3258,
      "å·¨å¤§çļĦ": 3259,
      "ä½ĵçļĦ": 3260,
      "éĥ½æ²¡æľī": 3261,
      "ä½ľèĢħ": 3262,
      "ä¸Ģå¤©": 3263,
      "æŀĿ": 3264,
      "æĪĸæĺ¯": 3265,
      "ä¸Ģåľº": 3266,
      "æĭľ": 3267,
      "å½¢å¼ı": 3268,
      "æĭĮ": 3269,
      "ver": 3270,
      "éļľ": 3271,
      "èĪĴéĢĤ": 3272,
      "å²¸": 3273,
      "åħ¬åĽŃ": 3274,
      "åºŀ": 3275,
      "æĦıåĳ³": 3276,
      "æĲħ": 3277,
      "ä¸įå¦Ĥ": 3278,
      "ä¸»äºº": 3279,
      "è¯Ńæ°Ķ": 3280,
      "ç£¨": 3281,
      "æĺ¯æĮĩ": 3282,
      "åı£åĳ³": 3283,
      "ç¬¼": 3284,
      "æĴŃ": 3285,
      "äºĨä¸Ģçľ¼": 3286,
      "ç¾İå¥½": 3287,
      "çĽ®çļĦ": 3288,
      "æ±¡": 3289,
      "è¯·åĳĬè¯īæĪĳ": 3290,
      "æĸľ": 3291,
      "æīĭä¸ŃçļĦ": 3292,
      "èĥ½æºĲ": 3293,
      "å°ıå¿ĥ": 3294,
      "èĤ¤": 3295,
      "å¯¸": 3296,
      "åŁİçļĦ": 3297,
      "å§ļ": 3298,
      "æĦŁçŁ¥": 3299,
      "åŁºäºİ": 3300,
      "æŁĲä¸ª": 3301,
      "print": 3302,
      "200": 3303,
      "çĽ¸å½ĵ": 3304,
      "éĩĮéĿ¢": 3305,
      "åĮĢ": 3306,
      "ãĢįï¼Į": 3307,
      "æľ¬ä¹¦": 3308,
      "é©¬ä¸Ĭ": 3309,
      "è¡£æľį": 3310,
      "åĽłç´ł": 3311,
      "ä¼¤å®³": 3312,
      "ç¬ĳå®¹": 3313,
      "èĭ±è¯Ń": 3314,
      "æīŃ": 3315,
      "å·§åħĭ": 3316,
      "Ġ6": 3317,
      "æĦŁåıĹåĪ°": 3318,
      "åĳ¼åĲ¸": 3319,
      "èİİ": 3320,
      "éĵ¾": 3321,
      "æľĢé«ĺ": 3322,
      "çļĦä¸ľè¥¿": 3323,
      "æŁ±": 3324,
      "å¿ĥæĥħ": 3325,
      "åıĤä¸İ": 3326,
      "æĿĢäºĨ": 3327,
      "ä¾ĿæĹ§": 3328,
      "åĨľ": 3329,
      "åīįæĸ¹": 3330,
      "å¼ĢäºĨ": 3331,
      "Ġ10": 3332,
      "å¹³éĿĻ": 3333,
      "æĪĳæĺ¯": 3334,
      "æĬ¬èµ·": 3335,
      "åĪĽæĦı": 3336,
      "éĹ¨åı£": 3337,
      "æ±½è½¦": 3338,
      "ä¸ĸçķĮä¸Ĭ": 3339,
      "æķĪçİĩ": 3340,
      "éģŃ": 3341,
      "èĻļç©º": 3342,
      "èĪį": 3343,
      "åľ¨ä»ĸ": 3344,
      "ä¸įæĥ³": 3345,
      "40": 3346,
      "ĠæŀĹä¸ĥå¤ľ": 3347,
      "ä¸ĵä¸ļ": 3348,
      "æ³½": 3349,
      "çĽ¯çĿĢ": 3350,
      "å§¿": 3351,
      "ç¾İåĳ³": 3352,
      "æ£®æŀĹ": 3353,
      "ĠI": 3354,
      "ä¸įåı¯èĥ½": 3355,
      "åĬ²": 3356,
      "æĹ¶ä»£": 3357,
      "åįģåĪĨ": 3358,
      "è¿Ļæĺ¯ä¸Ģä¸ª": 3359,
      "æİª": 3360,
      "åĲĪéĢĤ": 3361,
      "æİĮæı¡": 3362,
      "èĨĢ": 3363,
      "ãĢĭãĢģ": 3364,
      "æĺİå¤©": 3365,
      "çĶŁäº§": 3366,
      "è´¦": 3367,
      "çİĽ": 3368,
      "Ġä»İ": 3369,
      "è¿ĩçļĦ": 3370,
      "Ġof": 3371,
      "ç¬¬ä¸ī": 3372,
      "æ··åĲĪ": 3373,
      "å¥½å¥ĩ": 3374,
      "æĤ¦": 3375,
      "ä¸ĢæĹ¦": 3376,
      "ä¼ı": 3377,
      "ur": 3378,
      "éĻĮ": 3379,
      "ä»¥åīį": 3380,
      "ä»ĸåľ¨": 3381,
      "èľĤ": 3382,
      "çŃīå¾ħ": 3383,
      "çŃīäºİ": 3384,
      "Ġç»Ļå®ļ": 3385,
      "éģĩåĪ°": 3386,
      "äºĨåĩł": 3387,
      "æ®µèĲ½": 3388,
      "æĢ»æĺ¯": 3389,
      "èĥĨ": 3390,
      "ä¸Ģåı¥": 3391,
      "çķĻä¸ĭ": 3392,
      "è½»æĿ¾": 3393,
      "æł¸å¿ĥ": 3394,
      "ä¹³": 3395,
      "ä¸Ģäºº": 3396,
      "çļĦæĸĩç«ł": 3397,
      "çİ°å®ŀ": 3398,
      "éĶ»": 3399,
      "ĠéĻĪ": 3400,
      "åĬ¿åĬĽ": 3401,
      "å¤ıå¤©": 3402,
      "éªĳå£«": 3403,
      "è®¾å¤ĩ": 3404,
      "ä¸ĭéĿ¢": 3405,
      "æ¶¦": 3406,
      "æĺł": 3407,
      "éĹ·": 3408,
      "æĤī": 3409,
      "Ġçİĭ": 3410,
      "è®²è¿°": 3411,
      "èĪ°": 3412,
      "æ¬§": 3413,
      "åīĳæ°Ķ": 3414,
      "åħĦå¼Ł": 3415,
      "çļĦæķħäºĭ": 3416,
      "èľľ": 3417,
      "æĹ©å°±": 3418,
      "æĪĳå°±": 3419,
      "åŃĲéĩĮ": 3420,
      "æ»¡è¶³": 3421,
      "æī¯": 3422,
      "è¾ī": 3423,
      "è®°å½ķ": 3424,
      "ç«ŀ": 3425,
      "çŁ©": 3426,
      "åıĤåĬł": 3427,
      "ï¼ļ\"": 3428,
      "é²ģ": 3429,
      "éľľ": 3430,
      "æķĻèĤ²": 3431,
      "åģļåĩº": 3432,
      "åĨĻä¸Ģä¸ª": 3433,
      "çľīå¤´": 3434,
      "ay": 3435,
      "åĶ±": 3436,
      "åľ°åĮº": 3437,
      "æĢģåº¦": 3438,
      "éĶĢåĶ®": 3439,
      "æģ¨": 3440,
      "ĠA": 3441,
      "æĤĦ": 3442,
      "å¿ħè¦ģ": 3443,
      "æĻ´": 3444,
      "æĵ¦": 3445,
      "å°ĳå¥³": 3446,
      "ge": 3447,
      "Ġx": 3448,
      "è½¬å¤´": 3449,
      "äººåĳĺ": 3450,
      "åºĦ": 3451,
      "Ġ7": 3452,
      "å¸Ĥåľº": 3453,
      "åĪļæīį": 3454,
      "æĪĲåĳĺ": 3455,
      "å·§åħĭåĬĽ": 3456,
      "æħ§": 3457,
      "æļĤæĹ¶": 3458,
      "å©Ĩ": 3459,
      "èªī": 3460,
      "âĢĻï¼Į": 3461,
      "è¿Ļæĺ¯ä¸Ģ": 3462,
      "ul": 3463,
      "è´Łè´£": 3464,
      "å·´åĵĪ": 3465,
      "çĸ¾": 3466,
      "é»ĳæ´ŀ": 3467,
      "æİ¥åıĹ": 3468,
      "åĺī": 3469,
      "æĹģè¾¹": 3470,
      "æĥħæĬ¥": 3471,
      "æ·»åĬł": 3472,
      "çĮª": 3473,
      "çļĦåıĳå±ķ": 3474,
      "éļ¾ä»¥": 3475,
      "çĳŀ": 3476,
      "å²©": 3477,
      "åŃĹç¬¦ä¸²": 3478,
      "ĠçĶŁæĪĲä¸Ģä¸ª": 3479,
      "ç¢Ĺ": 3480,
      "Ġre": 3481,
      "æĬ¥åĳĬ": 3482,
      "åį¿": 3483,
      "å¿Į": 3484,
      "æŃ£æĺ¯": 3485,
      "202": 3486,
      "æĻļä¸Ĭ": 3487,
      "åĨħéĥ¨": 3488,
      "è´Ńçī©": 3489,
      "if": 3490,
      "è¢į": 3491,
      "ç½¢": 3492,
      "æħ¢æħ¢": 3493,
      "ä¸ĢæĹģ": 3494,
      "åĵŃ": 3495,
      "äºĨä¸Ģå£°": 3496,
      "æķ°çļĦ": 3497,
      "çĮ®": 3498,
      "è®¢": 3499,
      "äº¤æµģ": 3500,
      "åİĭåĬĽ": 3501,
      "çĶ¨æĿ¥": 3502,
      "çŀª": 3503,
      "ä¹Łä¸įæĺ¯": 3504,
      "èº«å½¢": 3505,
      "èĴĤ": 3506,
      "çļĦæµ·": 3507,
      "æ»´": 3508,
      "åĽŀåİ»": 3509,
      "å¸ĪçĪ¶": 3510,
      "Ġ[": 3511,
      "åĲ¦åĪĻ": 3512,
      "ç²Ĺ": 3513,
      "èĴĻ": 3514,
      "å¹¶ä¸įæĺ¯": 3515,
      "è¯´ä¸į": 3516,
      "ä¾ĭåŃĲ": 3517,
      "åħ¬ä¼ļ": 3518,
      "æ¹¿": 3519,
      "è°ĥæķ´": 3520,
      "é¸¡èĽĭ": 3521,
      "æľīæ²¡æľī": 3522,
      "éĩĳèī²": 3523,
      "è®¤è¯Ĩ": 3524,
      "åı¬": 3525,
      "é£İéĻ©": 3526,
      "æľĢå¤§": 3527,
      "åĩłäºº": 3528,
      "éĺŁä¼į": 3529,
      "ĠB": 3530,
      "****": 3531,
      "ä¹Ŀåĵģ": 3532,
      "ä»Ķ": 3533,
      "è®°å¾Ĺ": 3534,
      "ç±»åĪ«": 3535,
      "çł¸": 3536,
      "å®ł": 3537,
      "ãĢĭãĢģãĢĬ": 3538,
      "é¢Ħæµĭ": 3539,
      "å¹¶éĿŀ": 3540,
      "ä¸ĸçķĮçļĦ": 3541,
      "èĲ½åľ¨": 3542,
      "åıĳåĩº": 3543,
      "ç»ıæµİ": 3544,
      "éĤ£ç§į": 3545,
      "åĮĸçļĦ": 3546,
      "èĮĦ": 3547,
      "å½¢çļĦ": 3548,
      "åı¯ä»¥éĢļè¿ĩ": 3549,
      "åĲİæĿ¥": 3550,
      "è§Ĩçº¿": 3551,
      "Ġå½ĵ": 3552,
      "æĹ¥æľŁ": 3553,
      "éģĵçĲĨ": 3554,
      "çļĦæĦŁè§ī": 3555,
      "ä¼ļæľī": 3556,
      "è¿Ł": 3557,
      "Ġä½ł": 3558,
      "è¸ª": 3559,
      "åĸľæ¬¢çļĦ": 3560,
      "å¯¹è¯Ŀ": 3561,
      "æ¸¡": 3562,
      "è¿Ļé¦ĸ": 3563,
      "åĴ³": 3564,
      "è¿Ļåº§": 3565,
      "é¼»": 3566,
      "å¥³åŃ©": 3567,
      "åı¯ä»¥å¸®åĬ©": 3568,
      "çĽ¸äºĴ": 3569,
      "oo": 3570,
      "è½¬æį¢": 3571,
      "æĬĢå·§": 3572,
      "çļĦå¤©æ°Ķ": 3573,
      "çº¹": 3574,
      "æĤ²": 3575,
      "ç§»åĬ¨": 3576,
      "æŃ£éĿ¢": 3577,
      "çļĦæĹ¶éĹ´": 3578,
      "æĶ¾åħ¥": 3579,
      "çł´ç¢İ": 3580,
      "èĽĭç³ķ": 3581,
      "çľŁæŃ£çļĦ": 3582,
      "çľĭåĪ°äºĨ": 3583,
      "å¾ª": 3584,
      "us": 3585,
      "11": 3586,
      "ç»ĨèĬĤ": 3587,
      "å½¼": 3588,
      "çĽ¸ä¼¼": 3589,
      "æĢ¨": 3590,
      "åĲĵ": 3591,
      "åĨĴéĻ©": 3592,
      "éĢĤéĩı": 3593,
      "èµĭ": 3594,
      "çĶµè¯Ŀ": 3595,
      "å¿«ä¹Ĳ": 3596,
      "çĸĳæĥĳ": 3597,
      "å¿ĥçļĦ": 3598,
      "ç»ıè¿ĩ": 3599,
      "èĭıæĻĵçļĦ": 3600,
      "åħ³éĶ®è¯į": 3601,
      "èĥĮæĻ¯": 3602,
      "æķ²": 3603,
      "å®ŀéªĮ": 3604,
      "é¢¤": 3605,
      "ä¹łæĥ¯": 3606,
      "è¿Ī": 3607,
      "ä½¿å¾Ĺ": 3608,
      "(\"": 3609,
      "çİ¯ä¿Ŀ": 3610,
      "æĻĭ": 3611,
      "å®¶æĹı": 3612,
      "æ°Ķæ¸©": 3613,
      "Ġå°Ĩä»¥ä¸ĭ": 3614,
      "æ³ķå¾ĭ": 3615,
      "ç¨Ģ": 3616,
      "èħĲ": 3617,
      "çĶµè§Ĩ": 3618,
      "æŃ£ç¡®çļĦ": 3619,
      "æĲľç´¢": 3620,
      "çıĢ": 3621,
      "åĻ¬": 3622,
      "åºĨ": 3623,
      "é£Łåĵģ": 3624,
      "å¹´è½»äºº": 3625,
      "æľªå¿ħ": 3626,
      "æĸĩåŃĹ": 3627,
      "ç¬ĳäºĨç¬ĳ": 3628,
      "ä¹īè¯į": 3629,
      "å´©": 3630,
      "de": 3631,
      "éĴĪå¯¹": 3632,
      "åħ¶ä»ĸäºº": 3633,
      "çļĨ": 3634,
      "æ²Ĳ": 3635,
      "çī©çĲĨ": 3636,
      "ç¾İçļĦ": 3637,
      "ç¬¦åĲĪ": 3638,
      "åħ±åĲĮ": 3639,
      "ä¸įå¤Ł": 3640,
      "çļĦæĦıæĢĿ": 3641,
      "æ²¡ä»Ģä¹Ī": 3642,
      "è¿Ļä¹Īå¤ļ": 3643,
      "ç½ĳç«Ļ": 3644,
      "å¢ĥçķĮ": 3645,
      "ä¹Łåľ¨": 3646,
      "åĽŀåĪ°": 3647,
      "èĮ«": 3648,
      "çŀ§": 3649,
      "åĪ«äºº": 3650,
      "å¹³æĸ¹": 3651,
      "ĠçĶŁæĪĲ": 3652,
      "åĴķ": 3653,
      "è´´": 3654,
      "æĢİä¹Īæł·": 3655,
      "åĮĸåŃ¦": 3656,
      "èĳĹåĲįçļĦ": 3657,
      "å¥ĩæĢª": 3658,
      "åĩ¶": 3659,
      "æľĽåĲĳ": 3660,
      "çļĦåħī": 3661,
      "æ°Ķè¡Ģ": 3662,
      "åĲī": 3663,
      "éģ¥": 3664,
      "åı¯ä»¥åľ¨": 3665,
      "çĤ¹äºĨçĤ¹å¤´": 3666,
      "ä¸įèµ·": 3667,
      "çĸ¼": 3668,
      "éĺ¿å§Ĩ": 3669,
      "åŁ¹": 3670,
      "éļ¾éģĵ": 3671,
      "æĺŁçĲĥ": 3672,
      "æı´": 3673,
      "æĦıåĳ³çĿĢ": 3674,
      "éĻª": 3675,
      "æĥ³çĿĢ": 3676,
      "æīĢè°ĵ": 3677,
      "æĹłæ¯Ķ": 3678,
      "æĺı": 3679,
      "æĺ¯çļĦ": 3680,
      "çľł": 3681,
      "åķ¦": 3682,
      "æİ©": 3683,
      "èĦı": 3684,
      "å°ĨåĨĽ": 3685,
      "ä¹Łå¾Ī": 3686,
      "å¼Ģåıĳ": 3687,
      "èĭįçĮ«": 3688,
      "çŃ¾": 3689,
      "è¯´æĺ¯": 3690,
      "çķħ": 3691,
      "æľĢå¥½": 3692,
      "æıĲéĨĴ": 3693,
      "ç¼ł": 3694,
      "çĽ¸åĲĮ": 3695,
      "èĦļæŃ¥": 3696,
      "äºĨèµ·æĿ¥": 3697,
      "åĮĸä¸º": 3698,
      "éĩıåŃĲ": 3699,
      "æľīæķĪ": 3700,
      "çĢ": 3701,
      "åŀĥ": 3702,
      "å®¢æĪ·": 3703,
      "ä¼ģä¸ļ": 3704,
      "åľ¾": 3705,
      "é«ĺåħ´": 3706,
      "å·«": 3707,
      "æ¶īåıĬ": 3708,
      "ĠT": 3709,
      "éĥ½èĥ½": 3710,
      "500": 3711,
      "èı²": 3712,
      "ç»¿èī²": 3713,
      "è®¨è®º": 3714,
      "ä¸įçĦ¶": 3715,
      "Ġ0": 3716,
      "ç²¾ç¥ŀåĬĽ": 3717,
      "æľºåĻ¨åŃ¦ä¹ł": 3718,
      "æľīä¸ª": 3719,
      "ä¸ľå±±": 3720,
      "åŀĥåľ¾": 3721,
      "è¯¢éĹ®": 3722,
      "ĠèĻ½çĦ¶": 3723,
      "å··": 3724,
      "Ġth": 3725,
      "Ġe": 3726,
      "è¿Ļä¸¤ä¸ª": 3727,
      "èĲ½éŃĦ": 3728,
      "èģª": 3729,
      "æĭ¦": 3730,
      "çĶŁæĢģ": 3731,
      "å®īéĿĻ": 3732,
      "ĠåĨĻä¸Ģç¯ĩ": 3733,
      "æĸ¹ç¨ĭ": 3734,
      "èĥ½ä¸įèĥ½": 3735,
      "ç»ĺ": 3736,
      "çļĩå¸Ŀ": 3737,
      "å¥ĸåĬ±": 3738,
      "ĠæĪĳ": 3739,
      "æłĩåĩĨ": 3740,
      "å·Ŀ": 3741,
      "æ£Ĵ": 3742,
      "è¿Ļå°±æĺ¯": 3743,
      "å°ıæĺİ": 3744,
      "éĤ®": 3745,
      "ä¿Ŀè¯ģ": 3746,
      "æĦĪ": 3747,
      "ä¹Łä¸įä¼ļ": 3748,
      "è½®åĽŀä¹ĲåĽŃ": 3749,
      "æĲŃéħį": 3750,
      "å¤§éªĬ": 3751,
      "ç¨³å®ļ": 3752,
      "çļĦæĥħæĦŁ": 3753,
      "æ°¸è¿ľ": 3754,
      "çľ¼ä¸ĭ": 3755,
      "è®°å¿Ĩ": 3756,
      "å¤ĸçļĦ": 3757,
      "å°¤åħ¶æĺ¯": 3758,
      "ä¹ĭä¸Ĭ": 3759,
      "çĪĨçĤ¸": 3760,
      "çĤİ": 3761,
      "åīįå¾Ģ": 3762,
      "å»·": 3763,
      "ç´§å¼ł": 3764,
      "çİ°åĩº": 3765,
      "éĢłæĪĲ": 3766,
      "éĥ½è¦ģ": 3767,
      "æİł": 3768,
      "Ġå¯¹": 3769,
      "æĢ»ä¹ĭ": 3770,
      "Ġèĩ³äºİ": 3771,
      "ä¼ļåĦ¿": 3772,
      "ç¬¬ä¸Ģä¸ª": 3773,
      "çļĦéĩįè¦ģ": 3774,
      "çĻ¾å¹´": 3775,
      "æľīè¶£çļĦ": 3776,
      "åľ°éĿ¢": 3777,
      "åıįèĢĮ": 3778,
      "16": 3779,
      "çļĦå¥½": 3780,
      "ç¬¬ä¸Ģæ¬¡": 3781,
      "è¿Ļç¯ĩæĸĩç«ł": 3782,
      "éĩįçļĦ": 3783,
      "å¹´é¾Ħ": 3784,
      "åķ¥": 3785,
      "æľªæĿ¥çļĦ": 3786,
      "ä¹ĭä¸ĭ": 3787,
      "æĥħåĨµä¸ĭ": 3788,
      "æ¦Ĥå¿µ": 3789,
      "æĺ¯è°ģ": 3790,
      "è·¨": 3791,
      "14": 3792,
      "æīĳ": 3793,
      "æ¯ıæ¬¡": 3794,
      "æ¸ħæĻ°": 3795,
      "å¤ļä¸ª": 3796,
      "çŁ¿": 3797,
      "æŁĲç§į": 3798,
      "ĠçĻ½": 3799,
      "å°±ä¸į": 3800,
      "å¼ĢåĲ¯": 3801,
      "æĩĴ": 3802,
      "å¿§": 3803,
      "æĺ¯å¤ļå°ĳ": 3804,
      "æĬĸ": 3805,
      "è¿Ŀ": 3806,
      "çº·çº·": 3807,
      "æĭĤ": 3808,
      "äºĨä¸Ģåı¥": 3809,
      "æ²¿": 3810,
      "æĬĽ": 3811,
      "å¤§å°ı": 3812,
      "åĸ·": 3813,
      "åĤ»": 3814,
      "è¢«åĬ¨": 3815,
      "å¹¼æ¥ļ": 3816,
      "ch": 3817,
      "éŃĶæŃ¦": 3818,
      "æľ¬èº«": 3819,
      "ãģ": 3820,
      "å¤§å¤ļ": 3821,
      "è¿Ľä¸ĢæŃ¥": 3822,
      "çŃīåĪ°": 3823,
      "ä¸įä¸Ĭ": 3824,
      "å´Ķä¸ľå±±": 3825,
      "å±ģ": 3826,
      "ç¾İä¸½çļĦ": 3827,
      "æīĭæ®µ": 3828,
      "å¹³åı°": 3829,
      "æĺ¯åĽłä¸º": 3830,
      "çŃīäºº": 3831,
      "ä¸ĬéĿ¢çļĦ": 3832,
      "çİ°åľ¨çļĦ": 3833,
      "é¥®æĸĻ": 3834,
      "æ²Ł": 3835,
      "ç©¿çĿĢ": 3836,
      "è¡¨éĿ¢": 3837,
      "ä¸ºæĪĳ": 3838,
      "ce": 3839,
      "å·ħå³°": 3840,
      "æĥ§": 3841,
      "è§ģè¿ĩ": 3842,
      "è¶ĭ": 3843,
      "æĪĺéĺŁ": 3844,
      "æ¸Ĳæ¸Ĳ": 3845,
      "éĥ¨éĺŁ": 3846,
      "èĴ¸": 3847,
      "è¶ħè¿ĩ": 3848,
      "çĲ¥": 3849,
      "ä¿±": 3850,
      "ï¼ģï¼ģ": 3851,
      "çĭ®": 3852,
      "äºķ": 3853,
      "éĿ¢åĮħ": 3854,
      "åı¦ä¸Ģ": 3855,
      "ig": 3856,
      "çĶµèĦĳ": 3857,
      "ç³»åĪĹ": 3858,
      "çªģçł´": 3859,
      "éŃħ": 3860,
      "èĽ®": 3861,
      "åĸĥ": 3862,
      "å¡ŀè¥¿": 3863,
      "å½ĵä¸Ń": 3864,
      "çģŃæ³ķ": 3865,
      "æ´ª": 3866,
      "é¡ºåºı": 3867,
      "çī©çļĦ": 3868,
      "éĤ£ä¸Ģ": 3869,
      "åĿĳ": 3870,
      "å·®ä¸įå¤ļ": 3871,
      "ä¸ĬéĿ¢": 3872,
      "äººçĶŁ": 3873,
      "çĲ¥çıĢ": 3874,
      "ä¸īåįģ": 3875,
      "æĹłå¥Ī": 3876,
      "çļĦåºĶçĶ¨": 3877,
      "æĬ«èĲ¨": 3878,
      "å©ļ": 3879,
      "é²ľè¡Ģ": 3880,
      "è°ĭ": 3881,
      "ä¹Łèĥ½": 3882,
      "æµĭè¯ķ": 3883,
      "å¼ºçļĦ": 3884,
      "å±±ä¸Ĭ": 3885,
      "ç¾İå¥½çļĦ": 3886,
      "å·¢": 3887,
      "åıįæŃ£": 3888,
      "æ¨¡æł·": 3889,
      "å®¿": 3890,
      "éĤ£éĩĮ": 3891,
      "ä»Ģä¹Īæĺ¯": 3892,
      "å¡«": 3893,
      "ç¬ĳè¯Ŀ": 3894,
      "çīµ": 3895,
      "çļĦæĸ¹å¼ı": 3896,
      "äº¿": 3897,
      "qu": 3898,
      "æĽ¼": 3899,
      "ä¹Łè¦ģ": 3900,
      "ç§°ä¸º": 3901,
      "æĥ³äºĨ": 3902,
      "è¯»ä¹¦": 3903,
      "æī°": 3904,
      "èĩªæĪĳ": 3905,
      "å¿ĥçĲĨ": 3906,
      "çĿģ": 3907,
      "æ³°": 3908,
      "æ¯«æĹł": 3909,
      "å¡ŀè¥¿å°Ķ": 3910,
      "æĮĩæĮ¥": 3911,
      "æ£ĢæŁ¥": 3912,
      "ä»ª": 3913,
      "çī§": 3914,
      "èĤĮ": 3915,
      "ç½©": 3916,
      "åĿĩåĮĢ": 3917,
      "æµħ": 3918,
      "åĮ»çĶŁ": 3919,
      "ä¸įç®Ĺ": 3920,
      "æĢ»ç»ĵ": 3921,
      "å§ĭç»Ī": 3922,
      "æĹĹ": 3923,
      "est": 3924,
      "è¿Ļæīį": 3925,
      "è¡¨æł¼": 3926,
      "åı¯ä»¥ä½¿çĶ¨": 3927,
      "æ·±åħ¥": 3928,
      "éĤª": 3929,
      "æ°´æŀľ": 3930,
      "æľĢå¤ļ": 3931,
      "éĥ½è¢«": 3932,
      "å¤§åľ°": 3933,
      "åıĶ": 3934,
      "ä¼Ł": 3935,
      "äº¤æĺĵ": 3936,
      "å¹¸ç¦ı": 3937,
      "éļıæĹ¶": 3938,
      "ĠM": 3939,
      "Ġå¤©": 3940,
      "èµ°åĪ°": 3941,
      "è§Ħæ¨¡": 3942,
      "num": 3943,
      "ä¸Ģå¼ł": 3944,
      "çĭĲ": 3945,
      "æīĢæľīçļĦ": 3946,
      "æ¢ĵ": 3947,
      "è¿Ļä¸ľè¥¿": 3948,
      "æ»ĭ": 3949,
      "å°¸ä½ĵ": 3950,
      "åĵ²": 3951,
      "ä¼ĳæģ¯": 3952,
      "æĲħæĭĮ": 3953,
      "åĲįä¸º": 3954,
      "æ¼ł": 3955,
      "åĪĽå»º": 3956,
      "çĻ½èī²": 3957,
      "äºĶä¸ª": 3958,
      "çĤ¹çĤ¹å¤´": 3959,
      "è¯ĨåĪ«": 3960,
      "æī£": 3961,
      "ĠP": 3962,
      "è§ĦåĪĻ": 3963,
      "éĢ»": 3964,
      "çĨŁæĤī": 3965,
      "ç»ĻäºĨ": 3966,
      "å¼ŁåŃĲ": 3967,
      "æ³³": 3968,
      "ot": 3969,
      "çİ°åľ¨è¯·ä½ł": 3970,
      "æĢĸ": 3971,
      "ä¼¸æīĭ": 3972,
      "é¡µ": 3973,
      "çļĦå¤©": 3974,
      "å¡ĳ": 3975,
      "æįķ": 3976,
      "ä¸įè¯´": 3977,
      "Ġde": 3978,
      "ä¿Ĺ": 3979,
      "æľĿçĿĢ": 3980,
      "ä¸ĢæĬĬ": 3981,
      "å°±å·²ç»ı": 3982,
      "æł·åŃĲ": 3983,
      "çº½": 3984,
      "ä¸įè§ģ": 3985,
      "éĺ¶æ®µ": 3986,
      "çķªèĮĦ": 3987,
      "åħĪåīį": 3988,
      "åİŁæĿ¥": 3989,
      "è§Ĥä¼Ĺ": 3990,
      "ä¹ĭäºº": 3991,
      "éĢĤåºĶ": 3992,
      "åĵº": 3993,
      "æĪĲéķ¿": 3994,
      "çł°": 3995,
      "æĺ¾å¾Ĺ": 3996,
      "æĪĳåľ¨": 3997,
      "å¼ºå¤§çļĦ": 3998,
      "èĢģå¸Ī": 3999,
      "çĭ¬çī¹çļĦ": 4000,
      "ç¼Ŀ": 4001,
      "åº¦çļĦ": 4002,
      "æ»¡æĦı": 4003,
      "åĪĨç±»ä¸º": 4004,
      "ĠÃĹ": 4005,
      "å¢¨": 4006,
      "æĶ¾å¼ĥ": 4007,
      "æıĲä¾ĽçļĦ": 4008,
      "çĶŁåŃĺ": 4009,
      "è´¯": 4010,
      "13": 4011,
      "æĺİçļĦ": 4012,
      "ä»ĸæĺ¯": 4013,
      "åĩłä½į": 4014,
      "è¿½æ±Ĥ": 4015,
      "å¸®å¿Ļ": 4016,
      "åıĪæĺ¯": 4017,
      "æį·": 4018,
      "çĥĪçļĦ": 4019,
      "æ·±åĪ»": 4020,
      "æľĢå¥½çļĦ": 4021,
      "èĲ½éŃĦå±±": 4022,
      "æĪĴ": 4023,
      "ä¸īè§Ĵ": 4024,
      "åį³å°Ĩ": 4025,
      "ç¼ĸç¨ĭ": 4026,
      "èĥģ": 4027,
      "éĹ´çļĦ": 4028,
      "æ²Īå¹¼æ¥ļ": 4029,
      "Ġå¼ł": 4030,
      "è¿«": 4031,
      "åī²": 4032,
      "åĪĹåĩº": 4033,
      "Ġä½Ĩ": 4034,
      "æľīå¤ļ": 4035,
      "æķĽ": 4036,
      "17": 4037,
      "éģ¿éļ¾": 4038,
      "çĶ·åŃĲ": 4039,
      "åİīå®³": 4040,
      "åīįè¾Ī": 4041,
      "æĪĳéľĢè¦ģ": 4042,
      "è½¬èº«": 4043,
      "è´ŁéĿ¢": 4044,
      "ä¸Ģä»¶": 4045,
      "èħ¹": 4046,
      "çļĦæĸ¹æ³ķ": 4047,
      "å®¶äºº": 4048,
      "æľĽçĿĢ": 4049,
      "Ġ9": 4050,
      "ä¸ŃæľĢ": 4051,
      "æĺ¯çĶ±": 4052,
      "å½ĵåĪĿ": 4053,
      "åŃ¦æł¡": 4054,
      "çĬ¶åĨµ": 4055,
      "åı¯æĥľ": 4056,
      "çºł": 4057,
      "å½ĵåľ°": 4058,
      "èİ½": 4059,
      "éªĹ": 4060,
      "ist": 4061,
      "ä¸Ģé¢Ĺ": 4062,
      "å¯Łè§ī": 4063,
      "åİĺ": 4064,
      "æģĲæĢĸ": 4065,
      "åĩĳ": 4066,
      "ä¼ļè®®": 4067,
      "çİ°è±¡": 4068,
      "å¥¹ä»¬": 4069,
      "åįķä½į": 4070,
      "èµ¤": 4071,
      "80": 4072,
      "æ·ĭ": 4073,
      "æĴ¤": 4074,
      "é¢Ī": 4075,
      "æĦ¤": 4076,
      "çĪ¹": 4077,
      "å°Ĩä¼ļ": 4078,
      "è¶Ł": 4079,
      "ol": 4080,
      "æĸ¹ä¾¿": 4081,
      "è¯»èĢħ": 4082,
      "éļıæľº": 4083,
      "çĬ¬": 4084,
      "çļĦä½įç½®": 4085,
      "èµĦæĸĻ": 4086,
      "åĬĽåĴĮ": 4087,
      "èĩªçĦ¶çļĦ": 4088,
      "æĭĴ": 4089,
      "ä¸Ģè·¯": 4090,
      "æ´Ĵ": 4091,
      "åŃ¤çĭ¬": 4092,
      "è¯´ä»Ģä¹Ī": 4093,
      "æ¸¯": 4094,
      "åį³ä¾¿": 4095,
      "èĤĥ": 4096,
      "å¤ªéĺ³ç³»": 4097,
      "éĻĪæŀľ": 4098,
      "éĻįä½İ": 4099,
      "ke": 4100,
      "å¾Īéļ¾": 4101,
      "åĽŀå¤´": 4102,
      "========": 4103,
      "çļĦä¸»": 4104,
      "å¨ģèĥģ": 4105,
      "ç²¾çģµ": 4106,
      "çī©ä½ĵ": 4107,
      "åħ¥äºĨ": 4108,
      "å¤§éģĵ": 4109,
      "è®©ä»ĸä»¬": 4110,
      "è¯¾": 4111,
      "èµ°åĩº": 4112,
      "æŁĲäºĽ": 4113,
      "éľ²åĩº": 4114,
      "è®¿": 4115,
      "ow": 4116,
      "è®¶": 4117,
      "ç©·": 4118,
      "åłª": 4119,
      "å®Ŀçĵ¶": 4120,
      "éĢĨ": 4121,
      "æºª": 4122,
      "å¤ıåŃ£": 4123,
      "ä¸Ĭä¸ĭ": 4124,
      "æŃ»çļĦ": 4125,
      "æĹ¶åĪ»": 4126,
      "æ²¡æĥ³åĪ°": 4127,
      "æ±¡æŁĵ": 4128,
      "æŁ¥çľĭ": 4129,
      "å¯¹ä»ĺ": 4130,
      "ç¥Ń": 4131,
      "æ¡Ĳ": 4132,
      "åĵģè´¨": 4133,
      "è½¨": 4134,
      "å¹³è¡¡": 4135,
      "ä¸Ģéĺµ": 4136,
      "ä¸įåĩº": 4137,
      "ä¹¦ç±į": 4138,
      "æ¢ĵåįļ": 4139,
      "çī¢": 4140,
      "Ġé«ĺæĸĩ": 4141,
      "æħ¨": 4142,
      "åĭ¾": 4143,
      "æŀľçĦ¶": 4144,
      "éĥ¨çĶµå½±": 4145,
      "åıĹæ¬¢è¿İ": 4146,
      "å¸¸è§ģçļĦ": 4147,
      "åİ¨": 4148,
      "çĪª": 4149,
      "åĲĦèĩª": 4150,
      "èĴľ": 4151,
      "è¿ĽäºĨ": 4152,
      "é£ŀè¡Į": 4153,
      "Ġæııè¿°": 4154,
      "çł´åĿı": 4155,
      "åºĶçļĦ": 4156,
      "å¾Īæľī": 4157,
      "æĻ¯çĤ¹": 4158,
      "se": 4159,
      "åıªä¸įè¿ĩ": 4160,
      "ä¼ĺåĬ¿": 4161,
      "ãĢĤâĢľ": 4162,
      "éģĵå¾·": 4163,
      "çĽ¸æ¯Ķ": 4164,
      "å¼¥": 4165,
      "è¿ŀæİ¥": 4166,
      "èĢĮä¸įæĺ¯": 4167,
      "å¹¿åĳĬ": 4168,
      "æĻ¨": 4169,
      "ç¾İåħĥ": 4170,
      "æ¸ħåįķ": 4171,
      "æ¡ĥ": 4172,
      "åĽĽä¸ª": 4173,
      "çĪ¶äº²": 4174,
      "å¿½": 4175,
      "Ġä»ĸä»¬": 4176,
      "ä»Ķç»Ĩ": 4177,
      "å®łçī©": 4178,
      "åıł": 4179,
      "æĤŁ": 4180,
      "åĺ¿": 4181,
      "ç¥ŀèī²": 4182,
      "è¯įè¯Ń": 4183,
      "åī©ä¸ĭ": 4184,
      "é¹°": 4185,
      "å¼ºè°ĥ": 4186,
      "åĭĴ": 4187,
      "Ġç»ĻæĪĳ": 4188,
      "ç¾¡": 4189,
      "çº§çļĦ": 4190,
      "æĤ£": 4191,
      "æĤ¨éľĢè¦ģ": 4192,
      "æİ¥è§¦": 4193,
      "æī¶": 4194,
      "ir": 4195,
      "é¢ĩ": 4196,
      "æĪĳä¸į": 4197,
      "é³": 4198,
      "å¤ļä¹ħ": 4199,
      "è¿ĻçĤ¹": 4200,
      "è¿ĻæĹ¶åĢĻ": 4201,
      "çĩĥçĥ§": 4202,
      "æĢĢçĸĳ": 4203,
      "æĽ´å¥½çļĦ": 4204,
      "æ°´å¹³": 4205,
      "å¤´çļĦ": 4206,
      "çľ¨": 4207,
      "æ¬º": 4208,
      "çĪ±çļĦ": 4209,
      "ĠâĢľâĢ¦âĢ¦âĢĿ": 4210,
      "çºµ": 4211,
      "è¿Ľåİ»": 4212,
      "åºĶå¯¹": 4213,
      "ä¸īå¤§": 4214,
      "åħ¬åı¸çļĦ": 4215,
      "å§Ķ": 4216,
      "åľ¨ä¸Ģä¸ª": 4217,
      "ç»ĦæĪĲ": 4218,
      "åŁĭ": 4219,
      "åĵºä¹³": 4220,
      "æĮ£": 4221,
      "å¼¯": 4222,
      "å¾ĹäºĨ": 4223,
      "èīĺ": 4224,
      "åħĶ": 4225,
      "å¤§éĻĨ": 4226,
      "æī§è¡Į": 4227,
      "æ·±å¤Ħ": 4228,
      "äº²èĩª": 4229,
      "çİĭæľĿ": 4230,
      "è§ĤçĤ¹": 4231,
      "æĬ¬å¤´": 4232,
      "éģ¿éļ¾æīĢ": 4233,
      "ä¼½": 4234,
      "åįģåĩł": 4235,
      "åĢĴåħ¥": 4236,
      "éĺµèĲ¥": 4237,
      "åĮĨ": 4238,
      "å·®çĤ¹": 4239,
      "è¯Ĭ": 4240,
      "ç¿Ķ": 4241,
      "èİ±": 4242,
      "è¡«": 4243,
      "å®¹é±¼": 4244,
      "è¿Ļä¸¤": 4245,
      "åı¦ä¸Ģä¸ª": 4246,
      "ç§ĺå¯Ĩ": 4247,
      "è§ģåĪ°": 4248,
      "æīĢæľīäºº": 4249,
      "è¯įæ±ĩ": 4250,
      "ran": 4251,
      "éĶ¦": 4252,
      "æµĳ": 4253,
      "ç¡®è®¤": 4254,
      "è¶ĭåĬ¿": 4255,
      "æĹłäºº": 4256,
      "çļĦçĶµå½±": 4257,
      "å¤ļäºĨ": 4258,
      "è¸©": 4259,
      "è¾¹ç¼ĺ": 4260,
      "æľŁå¾ħ": 4261,
      "åŀĤ": 4262,
      "ãĢĳï¼Į": 4263,
      "è¾Ľ": 4264,
      "æ¢¯": 4265,
      "åľ¨åľ°": 4266,
      "åıĳæĮ¥": 4267,
      "å¥³çľŁ": 4268,
      "è¹²": 4269,
      "Ġè¯´": 4270,
      "è¿Ļåľº": 4271,
      "è£ħç½®": 4272,
      "æ·¡æ·¡": 4273,
      "ä½łéľĢè¦ģ": 4274,
      "åĲŀåĻ¬": 4275,
      "éĢļè®¯": 4276,
      "çĮİæĿĢ": 4277,
      "èį¯åīĤ": 4278,
      "åĩłåįģ": 4279,
      "åħ´å¥ĭ": 4280,
      "èĦĸ": 4281,
      "XX": 4282,
      "æĺŁæľŁ": 4283,
      "èĪ¬çļĦ": 4284,
      "è¯·ç»ĻæĪĳ": 4285,
      "çĳŁ": 4286,
      "ä»¥ä¾¿": 4287,
      "èĤ¥": 4288,
      "å·¨å¤§": 4289,
      "å¯¹æĸ¹çļĦ": 4290,
      "åĵ¼": 4291,
      "èºº": 4292,
      "æĭ¨": 4293,
      "ad": 4294,
      "æİĴåĪĹ": 4295,
      "åĪĨä¸º": 4296,
      "åĴĶ": 4297,
      "é«ĺåº¦": 4298,
      "èĲĿ": 4299,
      "æµ·æ´ĭ": 4300,
      "ä¸ĸçºª": 4301,
      "æ¸¸æ³³": 4302,
      "æ³ª": 4303,
      "å®Įæķ´": 4304,
      "æ¯ıä¸ªäºº": 4305,
      "èİ·åıĸ": 4306,
      "è¯ģæĺİ": 4307,
      "å¤®": 4308,
      "çĽĴ": 4309,
      "æľºåĻ¨äºº": 4310,
      "äºĪ": 4311,
      "èĢģåŃĲ": 4312,
      "æīĩ": 4313,
      "é¢ħ": 4314,
      "èĳ£": 4315,
      "äºĨåĲĹ": 4316,
      "é»Ħèī²": 4317,
      "æĳĬ": 4318,
      "æĪĳè¦ģ": 4319,
      "ä¸Ĭä¸Ģ": 4320,
      "è£¹": 4321,
      "åķ¸": 4322,
      "æİ¨çĲĨ": 4323,
      "å¯¿": 4324,
      "é£İæĻ¯": 4325,
      "çļĦå±±": 4326,
      "åį§": 4327,
      "éĤ®ä»¶": 4328,
      "ä¸įå¯¹": 4329,
      "äºĨåĲ§": 4330,
      "åģļä»Ģä¹Ī": 4331,
      "éĺ²å¾¡": 4332,
      "è¢«äºº": 4333,
      "èĲ¥åħ»": 4334,
      "ãĢģâĢľ": 4335,
      "æ³ķå¸Ī": 4336,
      "çĶŁåĳ½çļĦ": 4337,
      "ä¸Ģæ¬¾": 4338,
      "åĪĨäº«": 4339,
      "Ġå°±åľ¨": 4340,
      "åĴ§": 4341,
      "æĢ§æł¼": 4342,
      "çļĦä¸»é¢ĺ": 4343,
      "å®ļä¹ī": 4344,
      "éĺĶ": 4345,
      "Ġå°±": 4346,
      "ä¿©": 4347,
      "çļĦè¯ĹæŃĮ": 4348,
      "æ°ĶçļĦ": 4349,
      "æ·±åº¦": 4350,
      "ct": 4351,
      "è¨Ģè¯Ń": 4352,
      "æĪĺåĬĽ": 4353,
      "çľĭè§ģ": 4354,
      "æĮĸ": 4355,
      "åĬ¨çļĦ": 4356,
      "æĶ¶åħ¥": 4357,
      "å¥ī": 4358,
      "åħ¬åŃĲ": 4359,
      "ä¸Ģç¬ĳ": 4360,
      "é¹¿": 4361,
      "èĢĮæĿ¥": 4362,
      "Ġ||": 4363,
      "æģ¶éŃĶ": 4364,
      "èł": 4365,
      "è¿Ļä¸ªåı¥åŃĲ": 4366,
      "èĲ§å®¹é±¼": 4367,
      "èĶĵ": 4368,
      "å½¼æŃ¤": 4369,
      "æĳĩäºĨ": 4370,
      "ï¼Ł\"": 4371,
      "æĸ¹æīį": 4372,
      "æŁľ": 4373,
      "éĢļéģĵ": 4374,
      "æĸ°é²ľ": 4375,
      "åĲĳåīį": 4376,
      "äºĨä»ĸ": 4377,
      "éĹ¨çļĦ": 4378,
      "åĲĦä¸ª": 4379,
      "æĻ¯è±¡": 4380,
      "åĪĽæĸ°": 4381,
      "ç¤¾äº¤": 4382,
      "æİĪ": 4383,
      "èĢĮåĩº": 4384,
      "æĥĬè®¶": 4385,
      "èĤ©èĨĢ": 4386,
      "èİĵ": 4387,
      "éļıä¾¿": 4388,
      "éĨī": 4389,
      "éĥİ": 4390,
      "é£ŁæĿĲ": 4391,
      "èµ°åİ»": 4392,
      "æİªæĸ½": 4393,
      "èĩªçĦ¶è¯Ńè¨Ģ": 4394,
      "é¡¹çĽ®": 4395,
      "éģĵè·¯": 4396,
      "æĮ¯": 4397,
      "å®ĥæĺ¯": 4398,
      "æĪĲä¸ºäºĨ": 4399,
      "ĠåĪĺ": 4400,
      "Ã©": 4401,
      "æĹ¥çļĦ": 4402,
      "è¿ĺéľĢè¦ģ": 4403,
      "åİĤ": 4404,
      "æ¶Ĥ": 4405,
      "èĴĭ": 4406,
      "åħ¶æ¬¡": 4407,
      "ç¥ŀç»ı": 4408,
      "åĲ¸æĶ¶": 4409,
      "åİ®": 4410,
      "ä¸įè¡Į": 4411,
      "åĩĮ": 4412,
      "ĠW": 4413,
      "æ§Ĳ": 4414,
      "å®ŀéĻħä¸Ĭ": 4415,
      "å¤§äºĨ": 4416,
      "åģļçļĦ": 4417,
      "ä¸Ģæľ¬": 4418,
      "èĮĤ": 4419,
      "æĵħ": 4420,
      "å¤±è´¥": 4421,
      "å©´": 4422,
      "çĶŁéķ¿": 4423,
      "è´¡": 4424,
      "å½ĵåīį": 4425,
      "å¸¦æĿ¥çļĦ": 4426,
      "éĢ»è¾ĳ": 4427,
      "Ġ*": 4428,
      "èĩªè¡Į": 4429,
      "å°½ç®¡": 4430,
      "è¯´æ³ķ": 4431,
      "çĤ¹çļĦ": 4432,
      "ä¸Ģçľĭ": 4433,
      "èī²å½©": 4434,
      "é¢ĦæĬ¥": 4435,
      "Ġä½Ĩæĺ¯": 4436,
      "çĸ¾çĹħ": 4437,
      "åĵºä¹³åĬ¨çī©": 4438,
      "å¤¹": 4439,
      "ä¸ĢæĹ¶éĹ´": 4440,
      "èĪ±": 4441,
      "éĺŁéķ¿": 4442,
      "çĸ¯çĭĤ": 4443,
      "åĲ«ä¹ī": 4444,
      "æĥ³äºĨæĥ³": 4445,
      "ä½łåľ¨": 4446,
      "çŁĽ": 4447,
      "å¥³äºº": 4448,
      "èĦĤ": 4449,
      "æ¡£": 4450,
      "å¼Ĥå¸¸": 4451,
      "æģĴæĺŁ": 4452,
      "å¼ºåº¦": 4453,
      "å¢ŀå¼º": 4454,
      "Ġbe": 4455,
      "çĵ¦": 4456,
      "éĻµ": 4457,
      "äºĴçĽ¸": 4458,
      "å¼ºåĮĸ": 4459,
      "éĩĩçĶ¨": 4460,
      "ä½łè¯´": 4461,
      "çĲĨè®º": 4462,
      "åı¤èĢģ": 4463,
      "ä¼ŀ": 4464,
      "ä¹ĭå¤Ħ": 4465,
      "åĶĲè·ĥ": 4466,
      "åİĺç±³": 4467,
      "1000": 4468,
      "Ġv": 4469,
      "å¤©å¸Ŀ": 4470,
      "é©¾é©¶": 4471,
      "äººå·¥æĻºèĥ½æĬĢæľ¯": 4472,
      "ç»ĥä¹ł": 4473,
      "çĽ¸åħ³çļĦ": 4474,
      "ä¸Ģå¹´": 4475,
      "æ¼Ĩ": 4476,
      "åģĩè®¾": 4477,
      "æĹ¶çļĦ": 4478,
      "ĠçĦ¶èĢĮ": 4479,
      "æ²Ļæ»©": 4480,
      "åħħæ»¡äºĨ": 4481,
      "åĦĴ": 4482,
      "çļĦä¸»è¦ģ": 4483,
      "ãĢĤãĢį": 4484,
      "å¾Ĺåĩº": 4485,
      "æĥħèĬĤ": 4486,
      "ä¸Ŀæ¯«": 4487,
      "åħ¶ä¸ŃçļĦ": 4488,
      "éĿłè¿ĳ": 4489,
      "åĩ¯æĴĴ": 4490,
      "æĺ¯æĪĳ": 4491,
      "åĽ½çļĦ": 4492,
      "åīĳæ°Ķéķ¿": 4493,
      "è¾ŀ": 4494,
      "æ³ķè¯Ń": 4495,
      "æĶ¯ä»ĺ": 4496,
      "æķ°ä¸º": 4497,
      "éĿŀå¸¸å¥½": 4498,
      "çļĦæĥħåĨµä¸ĭ": 4499,
      "è´¼": 4500,
      "ĠæīĢä»¥": 4501,
      "ä¼°è®¡": 4502,
      "å®¡": 4503,
      "åĩłå¤©": 4504,
      "è§Ĵåº¦": 4505,
      "æ°ĶåĢĻåıĺåĮĸ": 4506,
      "æĺİç¡®": 4507,
      "åĺ´è§Ĵ": 4508,
      "çŃīçº§": 4509,
      "åİŁåľ°": 4510,
      "æ¼ı": 4511,
      "çļĦèĥ½åĬĽ": 4512,
      "æŀ¯": 4513,
      "å®¶éĩĮ": 4514,
      "æľ¬æĿ¥": 4515,
      "24": 4516,
      "æ¯ıä¸Ģä¸ª": 4517,
      "ri": 4518,
      "ï¼ļ-": 4519,
      "æıī": 4520,
      "èĥŀ": 4521,
      "çĶŁæĹ¥": 4522,
      "èĸĩ": 4523,
      "åªĴ": 4524,
      "è§£éĩĬä¸Ģä¸ĭ": 4525,
      "å¼ķèµ·": 4526,
      "äººåľ¨": 4527,
      "èº¯": 4528,
      "è¾ħ": 4529,
      "éľŀ": 4530,
      "äºı": 4531,
      "äºĨä»Ģä¹Ī": 4532,
      "æĹłéĻĲ": 4533,
      "åı¯ä»¥è¢«": 4534,
      "å¤ľæĻļ": 4535,
      "æľĢä½³": 4536,
      "è£Ļ": 4537,
      "é£ŀèĪ¹": 4538,
      "æıĲä¾Ľä¸ĢäºĽ": 4539,
      "æĸ©é¾Ļ": 4540,
      "çĴ¨": 4541,
      "èģªæĺİ": 4542,
      "æĹ¶æľŁ": 4543,
      "æĶ¾å¿ĥ": 4544,
      "è®¤çľŁ": 4545,
      "è¡Ĺéģĵ": 4546,
      "çĻ¾éĩĮ": 4547,
      "Ġè½°": 4548,
      "çļĦåĬĽéĩı": 4549,
      "è¯Ńæ³ķ": 4550,
      "ĠL": 4551,
      "æĺ¯ä¸į": 4552,
      "çĴĥ": 4553,
      "ç»Ŀå·ħ": 4554,
      "ä¸ĭæĿ¥çļĦ": 4555,
      "çĶ»éĿ¢": 4556,
      "ç»©": 4557,
      "ç§ĳå¹»": 4558,
      "çľĭäºĨçľ¼": 4559,
      "å¤±åİ»": 4560,
      "çĥŃéĹ¹": 4561,
      "æĢĿç»´": 4562,
      "åĿļæĮģ": 4563,
      "oss": 4564,
      "åĮ¹": 4565,
      "è¡¨æĺİ": 4566,
      "æĲ¬": 4567,
      "éĩĩåıĸ": 4568,
      "çļĦè¡¨æĥħ": 4569,
      "å°±æľī": 4570,
      "ä»ĬæĹ¥": 4571,
      "æµ©çĦ¶": 4572,
      "éķ¿åĪĢ": 4573,
      "é¢Ĩä¸»": 4574,
      "å¤ıå¤©çļĦ": 4575,
      "ç»´æĮģ": 4576,
      "æĪĪ": 4577,
      "ä¸įéĶĻçļĦ": 4578,
      "å±ħæ°ĳ": 4579,
      "æ¬£èµı": 4580,
      "é£İåĲ¹": 4581,
      "åĲĪéĢĤçļĦ": 4582,
      "ä¸Ģç»Ħ": 4583,
      "æľªçŁ¥": 4584,
      "å°ıåŃĲ": 4585,
      "é©±": 4586,
      "äººç±»çļĦ": 4587,
      "å¤ļç§į": 4588,
      "åħ¶ä»ĸçļĦ": 4589,
      "æħķ": 4590,
      "éģ®": 4591,
      "æīĭæĮĩ": 4592,
      "åĿł": 4593,
      "åĩłåĪĨ": 4594,
      "ç¥ŀä»Ļ": 4595,
      "èĬ¦": 4596,
      "å·²ç»ıè¢«": 4597,
      "ä¼łéĢģ": 4598,
      "æĬµè¾¾": 4599,
      "ld": 4600,
      "ä½Ĩä»ĸ": 4601,
      "æ¨¡å¼ı": 4602,
      "Ġè¿Ļä¸ª": 4603,
      "æĹ¶å°ļ": 4604,
      "çī¹æĢ§": 4605,
      "å²³": 4606,
      "çĩķ": 4607,
      "äººéĹ´": 4608,
      "éĤ£åº§": 4609,
      "åĽ°éļ¾": 4610,
      "çļĦæĢ»": 4611,
      "âĢĿãĢģâĢľ": 4612,
      "æĬ¥éģĵ": 4613,
      "è¾°": 4614,
      "ĠçľĭçĿĢ": 4615,
      "æĥ¹": 4616,
      "åĳĺå·¥": 4617,
      "æĺ¯ä¸Ģä½į": 4618,
      "çŁŃè¯Ń": 4619,
      "ç»Ļä»ĸ": 4620,
      "å±ķç¤º": 4621,
      "çļĦç¡®": 4622,
      "çº½çº¦": 4623,
      "åģ¶å°Ķ": 4624,
      "ï¼Į\"": 4625,
      "ä¸ĬæĿ¥": 4626,
      "æĪĲæľ¬": 4627,
      "åĿĽ": 4628,
      "é¥®é£Ł": 4629,
      "æ³¢åĬ¨": 4630,
      "å¿ĥçģµ": 4631,
      "éļĲå®ĺ": 4632,
      "æĹ¶åħī": 4633,
      "çĶĺ": 4634,
      "çŀ³": 4635,
      "åı¤ä»£": 4636,
      "ç»¼": 4637,
      "æħİ": 4638,
      "äº¬åŁİ": 4639,
      "æµ·æ»©": 4640,
      "è½¯ä»¶": 4641,
      "è¦ĨçĽĸ": 4642,
      "åĽłä¸ºå®ĥ": 4643,
      "æľŁéĹ´": 4644,
      "æµªæ¼«": 4645,
      "æĸ¤": 4646,
      "å¹¶åľ¨": 4647,
      "éĥŃ": 4648,
      "èĬ¬": 4649,
      "æŁł": 4650,
      "å½¢çĬ¶": 4651,
      "ä½İå¤´": 4652,
      "çİ©æĦı": 4653,
      "åĲĪçĲĨ": 4654,
      "ä½Ĩåľ¨": 4655,
      "å·´é»İ": 4656,
      "å¼Ĺ": 4657,
      "æĭ¾": 4658,
      "è¡Įä¸ļ": 4659,
      "å¤§éĩıçļĦ": 4660,
      "å¤ĸéĿ¢": 4661,
      "çĹĩ": 4662,
      "å¥½å¤Ħ": 4663,
      "èĭ¹": 4664,
      "å°±æ²¡": 4665,
      "éĢĤå½ĵ": 4666,
      "ä¸ĬéĿ¢çļĦéĹ®é¢ĺ": 4667,
      "è¯Ńè¨Ģæ¨¡åŀĭ": 4668,
      "çŃĶåºĶ": 4669,
      "éľĢè¦ģæ³¨æĦı": 4670,
      "åĤ²": 4671,
      "èĭ¹æŀľ": 4672,
      "åĽŀçŃĶä¸ĬéĿ¢çļĦéĹ®é¢ĺ": 4673,
      "å¿«çļĦ": 4674,
      "çĸ«": 4675,
      "æħĮ": 4676,
      "åĽŀçŃĶéĹ®é¢ĺ": 4677,
      "éĴ»": 4678,
      "äºĨä¸ĭæĿ¥": 4679,
      "çĲ´": 4680,
      "åħ¨èº«": 4681,
      "å£¶": 4682,
      "æ¼Ĥäº®": 4683,
      "éĩįéĩı": 4684,
      "åŃĲä¸Ĭ": 4685,
      "âĦ": 4686,
      "è¿ĽæŃ¥": 4687,
      "å§¬": 4688,
      "é£ŀåīĳ": 4689,
      "%ï¼Į": 4690,
      "æ²¡æľīä»»ä½ķ": 4691,
      "æīĭèĩĤ": 4692,
      "ä¸ºä½ł": 4693,
      "åºŁåľŁ": 4694,
      "çĥģ": 4695,
      "è¿ĺä¼ļ": 4696,
      "æ¦Ĥçİĩ": 4697,
      "ï¼Łï¼ģâĢĿ": 4698,
      "éĶ»çĤ¼": 4699,
      "ĠD": 4700,
      "åįģäºĮ": 4701,
      "åľºçļĦ": 4702,
      "çģ«çĦ°": 4703,
      "ç¢³": 4704,
      "äººä¸į": 4705,
      "åıĸåĩº": 4706,
      "åĵįèµ·": 4707,
      "ç®ĢçŁŃ": 4708,
      "çľŁè¦ģ": 4709,
      "æİ¥è¿ĳ": 4710,
      "ä»Ĺ": 4711,
      "èĲ½ä¸ĭ": 4712,
      "å¿ł": 4713,
      "åĬŀåħ¬": 4714,
      "äºĨä¸ĭ": 4715,
      "æŀģåħ¶": 4716,
      "åĪ«çļĦ": 4717,
      "åįİå¤ı": 4718,
      "è¿Ļä»¶äºĭ": 4719,
      "åŁĥ": 4720,
      "æª¬": 4721,
      "ä¸ĢåĪ»": 4722,
      "ä¸Ģçķª": 4723,
      "ä¸Ńå¤®": 4724,
      "åĳµåĳµ": 4725,
      "åĪĳ": 4726,
      "åĪĨåŃĲ": 4727,
      "Ġå½ĵçĦ¶": 4728,
      "éĥ½åı¯ä»¥": 4729,
      "å½¢è±¡": 4730,
      "åĳ¨è¾¹": 4731,
      "Ġfor": 4732,
      "æŁłæª¬": 4733,
      "éģĵäºº": 4734,
      "å®ħ": 4735,
      "èº«æĹģ": 4736,
      "éĹªçĥģ": 4737,
      "èģĬå¤©": 4738,
      "æĳĩäºĨæĳĩå¤´": 4739,
      "ç»Ļå®ļ": 4740,
      "åį°è±¡": 4741,
      "æĪĳåĸľæ¬¢": 4742,
      "åįĬä¸ª": 4743,
      "ç¤¼çī©": 4744,
      "åĦ¿åŃĲ": 4745,
      "æĭĽåĳ¼": 4746,
      "âĦĥ": 4747,
      "app": 4748,
      "çļĦä¸Ģä¸ª": 4749,
      "è°¨": 4750,
      "åĽŀäºĭ": 4751,
      "ĠH": 4752,
      "å¥½å¥½": 4753,
      "éĻĪè¿°": 4754,
      "æĻºæħ§": 4755,
      "åħ±æľī": 4756,
      "çľĭäºĨä¸Ģçľ¼": 4757,
      "å¾Īå¤§": 4758,
      "æ°Ķæ°Ľ": 4759,
      "æŃ¦éģĵ": 4760,
      "æµ¸": 4761,
      "æĢĿæĥ³": 4762,
      "èĬĤå¥ı": 4763,
      "éģĵå£«": 4764,
      "è¯Ŀé¢ĺ": 4765,
      "è¿Ļä»½": 4766,
      "åĩ»æĿĢ": 4767,
      "ä»¬çļĦ": 4768,
      "èµ¶ç´§": 4769,
      "åĳ¨åĽ´çļĦ": 4770,
      "æ°ĽåĽ´": 4771,
      "éļĲèĹı": 4772,
      "our": 4773,
      "æİ¨èįĲä¸ĢäºĽ": 4774,
      "æŃ¤åľ°": 4775,
      "ãĢĭãĢĤ": 4776,
      "åĨĻä¸Ģé¦ĸ": 4777,
      "ä¸ĢèĤ¡": 4778,
      "Ġæł¹æį®ç»Ļå®ļçļĦ": 4779,
      "æĸ¥": 4780,
      "ä»ĵ": 4781,
      "ç§¦åĩ¤": 4782,
      "ç¢ĳ": 4783,
      "ä¸ĭä¸ĢåĪ»": 4784,
      "99": 4785,
      "éĢĿ": 4786,
      "çŀ¥": 4787,
      "ç§¦åĩ¤éĿĴ": 4788,
      "å±ķå¼Ģ": 4789,
      "äººå¿ĥ": 4790,
      "å®ĮäºĨ": 4791,
      "èĺ": 4792,
      "æĪĳä¹Ł": 4793,
      "éĵľ": 4794,
      "å¾ªçİ¯": 4795,
      "è¯ķè¯ķ": 4796,
      "æķħæĦı": 4797,
      "åľ°çľĭçĿĢ": 4798,
      "èļĢ": 4799,
      "ä¼ļåľ¨": 4800,
      "å¥³æĢ§": 4801,
      "èī³": 4802,
      "å¤´é¢ħ": 4803,
      "çļĦæĸ°": 4804,
      "Ġç¼ĸ": 4805,
      "è¯ĬæĸŃ": 4806,
      "éĩĳæ´ĭ": 4807,
      "æºĥ": 4808,
      "ort": 4809,
      "Ġæł¹æį®ä»¥ä¸ĭ": 4810,
      "æĺ¨å¤©": 4811,
      "ä¸Ĭæµ·": 4812,
      "ä¼Ĺå¤ļ": 4813,
      "ä¸¥éĩį": 4814,
      "çļĦæĸ¹åĲĳ": 4815,
      "åľ°è¯´éģĵ": 4816,
      "çłį": 4817,
      "è§ĦçŁ©": 4818,
      "åĮ»åŃ¦": 4819,
      "ï¼Łï¼ģ": 4820,
      "ç²®": 4821,
      "éĤ£æł·": 4822,
      "ä¼ĺç§Ģ": 4823,
      "æķ£æŃ¥": 4824,
      "ä¼ª": 4825,
      "æİīäºĨ": 4826,
      "è®¾ç½®": 4827,
      "éħįåĲĪ": 4828,
      "ä¸ĢæĿ¯": 4829,
      "æĿľ": 4830,
      "æĺİçĻ½äºĨ": 4831,
      "çļĦç»ĵæŀľ": 4832,
      "åĲĮæĹ¶ä¹Ł": 4833,
      "Ġä¸Ģä¸ª": 4834,
      "çļĦæľºä¼ļ": 4835,
      "åĽŀå¿Ĩ": 4836,
      "èį·": 4837,
      "åĨħå¿ĥ": 4838,
      "é¸¦": 4839,
      "ç³Ł": 4840,
      "æĢİä¹ĪåĬŀ": 4841,
      "æ¦ľ": 4842,
      "åĳ½è¿Ĳ": 4843,
      "è®ºæĸĩ": 4844,
      "éĻĲåĪ¶": 4845,
      "åį¿é±¼": 4846,
      "æĺĶ": 4847,
      "æĭĵ": 4848,
      "çĸĳéĹ®": 4849,
      "ĠçĶ¨": 4850,
      "æĦŁåħ´è¶£": 4851,
      "æ¦Ĥæĭ¬": 4852,
      "èĢį": 4853,
      "çĪ¸": 4854,
      "èŁ": 4855,
      "ç±»çļĦ": 4856,
      "æ²¡äºº": 4857,
      "æŃ¦å¤«": 4858,
      "åį³ä½¿": 4859,
      "ä¿®è¡Į": 4860,
      "éĤĢ": 4861,
      "æŃ£å¼ı": 4862,
      "è¶³çĲĥ": 4863,
      "è¯ķåĽ¾": 4864,
      "ç¥ĸå¸Ī": 4865,
      "70": 4866,
      "æ±Ĺ": 4867,
      "è¶ģ": 4868,
      "å¹¶æľª": 4869,
      "èıĩ": 4870,
      "éĺģ": 4871,
      "éĿ©": 4872,
      "æŀģéĻĲ": 4873,
      "æĬķèµĦ": 4874,
      "åĶĲæŁĶ": 4875,
      "æµģè¡Į": 4876,
      "çĶ³": 4877,
      "Ġçİ°åľ¨": 4878,
      "æĥł": 4879,
      "çĲĨçĶ±": 4880,
      "éĢĬ": 4881,
      "å¤§éĥ¨åĪĨ": 4882,
      "ç°": 4883,
      "å¸ĪåħĦ": 4884,
      "æĦıè¯ĨåĪ°": 4885,
      "å¸½": 4886,
      "éľį": 4887,
      "å®¾": 4888,
      "ä¼ļè¢«": 4889,
      "æĶĢ": 4890,
      "æ¶Īè´¹": 4891,
      "éħĴåºĹ": 4892,
      "æĦıè§ģ": 4893,
      "çľĭä¼¼": 4894,
      "è¿Ļçīĩ": 4895,
      "ä½£": 4896,
      "äºĨä¸¤": 4897,
      "æģĭ": 4898,
      "å±Ī": 4899,
      "ä¸ĢæĿ¥": 4900,
      "åŁİä¸»": 4901,
      "æŃī": 4902,
      "è¿ĺä¸į": 4903,
      "æĮ¤": 4904,
      "å¼ĢæĶ¾": 4905,
      "ä¸Ĭæ¬¡": 4906,
      "è¯ŀ": 4907,
      "æĴķ": 4908,
      "åĭ¤": 4909,
      "åĸľå¥½": 4910,
      "åı¬åĶ¤": 4911,
      "æĸ©é¾ĻéĹª": 4912,
      "av": 4913,
      "id": 4914,
      "æ¿Ģæ´»": 4915,
      "å»Ĭ": 4916,
      "çĭ¬ç«ĭ": 4917,
      "è°ĥæŁ¥": 4918,
      "è¢ģ": 4919,
      "æĺ¾ç¤º": 4920,
      "å¹²èĦĨ": 4921,
      "éŃħåĬĽ": 4922,
      "åĨĻä½ľ": 4923,
      "éĤ£æĪĳ": 4924,
      "ç¬¬äºĮä¸ª": 4925,
      "å¼Ģå¿ĥ": 4926,
      "è¿Ļéĥ¨çĶµå½±": 4927,
      "æĿ¥çľĭ": 4928,
      "æĹ¶ç©º": 4929,
      "æįı": 4930,
      "æĸĳ": 4931,
      "æĿĨ": 4932,
      "é¸Ń": 4933,
      "æĺ¯æľī": 4934,
      "æ°´çļĦ": 4935,
      "ç±»åŀĭçļĦ": 4936,
      "å®Ľ": 4937,
      "æīĶ": 4938,
      "åı¹äºĨåı£æ°Ķ": 4939,
      "è´¡çĮ®": 4940,
      "boss": 4941,
      "ä¸ĩçī©": 4942,
      "è¯¡": 4943,
      "æİ¢è®¨": 4944,
      "çļĦä¸į": 4945,
      "éĶ¤": 4946,
      "res": 4947,
      "ä¸ĭåĪĹ": 4948,
      "ç¯®": 4949,
      ".\"": 4950,
      "çĤī": 4951,
      "å¤´ä¸Ĭ": 4952,
      "åĲ¬èµ·æĿ¥": 4953,
      "ç¾İæĻ¯": 4954,
      "ä¸įéľĢè¦ģ": 4955,
      "å¤§æĪĺ": 4956,
      "æģ¼": 4957,
      "çŁ¥éģĵäºĨ": 4958,
      "åĨ³çŃĸ": 4959,
      "---": 4960,
      "çļĦåĲĮæĹ¶": 4961,
      "è·ŁæĪĳ": 4962,
      "ĠæŃ¤åĪ»": 4963,
      "åľ°åĽ¾": 4964,
      "Ġ$": 4965,
      "è´µæĹı": 4966,
      "Ġè¿Ļæĺ¯": 4967,
      "éĤ£å°±æĺ¯": 4968,
      "ä½ĵåĨħ": 4969,
      "æī¾åĪ°äºĨ": 4970,
      "å°ıéĺŁ": 4971,
      "ä¸ĸçķĮä¸ĬæľĢ": 4972,
      "æĦŁæħ¨": 4973,
      "å¤§æ°Ķ": 4974,
      "è¿Ľè¡ĮåĪĨç±»": 4975,
      "ä¸įåıĬ": 4976,
      "çīĽèĤī": 4977,
      "æīĢéľĢ": 4978,
      "æ··ä¹±": 4979,
      "ä¼ļçļĦ": 4980,
      "åı¯æĢķ": 4981,
      "æıĲåīį": 4982,
      "åĮºåĪ«": 4983,
      "å§Ĳå§Ĳ": 4984,
      "è¿ĺçľŁ": 4985,
      "å®īåį¿é±¼": 4986,
      "å±ıå¹ķ": 4987,
      "è¿ĽæĿ¥": 4988,
      "æ²ŁéĢļ": 4989,
      "))": 4990,
      "åĳ½ä»¤": 4991,
      "åĨ²åĩ»": 4992,
      "å°ıé±¼": 4993,
      "ĠF": 4994,
      "Ġè¿ĻäºĽ": 4995,
      "å¤§åŃ¦": 4996,
      "æĹ©å·²": 4997,
      "æĹ¨": 4998,
      "å¹´åīį": 4999,
      "ç»ĵåĲĪ": 5000,
      "æģ°": 5001,
      "å¢Ļå£ģ": 5002,
      "åİ®æĿĢ": 5003,
      "ä¾į": 5004,
      "çĸ²": 5005,
      "ä¿®çĤ¼": 5006,
      "ç¢į": 5007,
      "è´£ä»»": 5008,
      "è´«": 5009,
      "çĭ±": 5010,
      "è¿Ļæ®µæĸĩæľ¬": 5011,
      "å±±å³°": 5012,
      "ä½ķåĨµ": 5013,
      "ä¸Ĭåīį": 5014,
      "æĦīæĤ¦": 5015,
      "èĥĮåĲİ": 5016,
      "åĩºéĹ¨": 5017,
      "åħ¶ä½Ļ": 5018,
      "ç¥ŀçļĦ": 5019,
      "ç»½": 5020,
      "ant": 5021,
      "ç§°åı·": 5022,
      "æĹłè®ºæĺ¯": 5023,
      "ĠE": 5024,
      "æĺ¯æľĢ": 5025,
      "èµļ": 5026,
      "æĢªçī©": 5027,
      "ç¨İ": 5028,
      "æĹ¥åŃĲ": 5029,
      "åĨĽéĺŁ": 5030,
      "å°±è¢«": 5031,
      "èĻļæĭŁ": 5032,
      "æĹ¥æľ¬": 5033,
      "å¸®ä½ł": 5034,
      "èıľåįķ": 5035,
      "åĬłå¼º": 5036,
      "ä¸įå¤§": 5037,
      "éĩįå¤į": 5038,
      "èĭ±éĽĦ": 5039,
      "ç¿ħ": 5040,
      "æ´»çĿĢ": 5041,
      "ä¿®æĶ¹": 5042,
      "çļ±çľī": 5043,
      "æĢĶ": 5044,
      "èĢĮåľ¨": 5045,
      "çķı": 5046,
      "åķĨä¸ļ": 5047,
      "èĥľåĪ©": 5048,
      "é½¿": 5049,
      "æĲº": 5050,
      "çĽĹ": 5051,
      "å¹¸åŃĺ": 5052,
      "ä¸įåĬ¨": 5053,
      "æīĭä¸Ĭ": 5054,
      "æĪ·å¤ĸ": 5055,
      "åĲŁ": 5056,
      "åĬ©äºİ": 5057,
      "åıĺéĩı": 5058,
      "å¸¦æĿ¥äºĨ": 5059,
      "å½¹": 5060,
      "è¦ģå¡ŀ": 5061,
      "åģ¥èº«": 5062,
      "è¯´ä¸įå®ļ": 5063,
      "åĲİæĸ¹": 5064,
      "é£ŀåįĩ": 5065,
      "éĻĨæ²ī": 5066,
      "æµ®çİ°": 5067,
      "éĻĦè¿ĳçļĦ": 5068,
      "å¯Ħ": 5069,
      "æĪĲåĪĨ": 5070,
      "åĨįåº¦": 5071,
      "åĸ»": 5072,
      "åĮĹèİ½": 5073,
      "çĺ¦": 5074,
      "èĪŁ": 5075,
      "ç§ĭå¤©": 5076,
      "ç§ĭå¤©çļĦ": 5077,
      "Ġä¸ī": 5078,
      "æ¯Ķä¾ĭ": 5079,
      "èıľåĵģ": 5080,
      "ä¸Ģä¼ļ": 5081,
      "å¥´": 5082,
      "æ²¡äºĭ": 5083,
      "é¸¡èĤī": 5084,
      "çļĦä¸ĸçķĮ": 5085,
      "èµĸ": 5086,
      "é«ĺæīĭ": 5087,
      "ä»İæĿ¥": 5088,
      "Ġ20": 5089,
      "ãĢĭï¼Į": 5090,
      "å¤¸": 5091,
      "ä¹Ķ": 5092,
      "èĩªä¿¡": 5093,
      "ä¸ĢçĽ´åľ¨": 5094,
      "è§ĨçĿĢ": 5095,
      "åľ°çĤ¹": 5096,
      "æĦŁæĥħ": 5097,
      "èµ°åľ¨": 5098,
      "æķ´æķ°": 5099,
      "æŀģä¸º": 5100,
      "å®ģå§ļ": 5101,
      "æĭĴç»Ŀ": 5102,
      "æĬĵä½ı": 5103,
      "æĪĳè§īå¾Ĺ": 5104,
      "è¿Ļåıª": 5105,
      "æĽ´æĸ°": 5106,
      "é£ŀæľº": 5107,
      "è£ħé¥°": 5108,
      "åĪĩæĪĲ": 5109,
      "éģµ": 5110,
      "ç¥¸": 5111,
      "æľīåĵªäºĽ": 5112,
      "ç£ģ": 5113,
      "èĩªçĦ¶è¯Ńè¨Ģå¤ĦçĲĨ": 5114,
      "çļ®èĤ¤": 5115,
      "èķ¾": 5116,
      "äºĨè®¸å¤ļ": 5117,
      "æħ°": 5118,
      "æŃ¤äºĭ": 5119,
      "åľ£äºº": 5120,
      "æĶ¿åºľ": 5121,
      "æĳĺè¦ģ": 5122,
      "èº«åīį": 5123,
      "èļģ": 5124,
      "åĪ°æĹ¶åĢĻ": 5125,
      "æĦ§": 5126,
      "åĬ¨åĬĽ": 5127,
      "çļĦä»·æł¼": 5128,
      "èĩ£": 5129,
      "ï¼ļ```": 5130,
      "å¤Ħäºİ": 5131,
      "èĶĵå»¶": 5132,
      "ä¸Ľ": 5133,
      "æĭ¢": 5134,
      "éĤ£ä½ł": 5135,
      "ä¼łè¯´": 5136,
      "ä¸Ģå®¶": 5137,
      "èĤĸ": 5138,
      "è®¾æĸ½": 5139,
      "çĮ©": 5140,
      "æ®¿ä¸ĭ": 5141,
      "äººå·¥æĻºèĥ½åľ¨": 5142,
      "çĤ¼éĩĳ": 5143,
      "åŃĲåĴĮ": 5144,
      "åħ¥ä¾µ": 5145,
      "æ°´ä¸Ń": 5146,
      "åľĨçļĦ": 5147,
      "åĳĢ": 5148,
      "åĹ¡": 5149,
      "ç«Ļèµ·èº«": 5150,
      "ĠåĲ¬åĪ°": 5151,
      "åľ¨æĦı": 5152,
      "æİı": 5153,
      "åıĺæĪĲäºĨ": 5154,
      "Ġé»Ħ": 5155,
      "çĳľ": 5156,
      "ä¸Ģå¤Ħ": 5157,
      "å«Į": 5158,
      "å¾Īä¹ħ": 5159,
      "è·¯çº¿": 5160,
      "å²ģæľĪ": 5161,
      "å°¾å·´": 5162,
      "æµĵéĥģ": 5163,
      "è¿Ļä¸Ģæ¬¡": 5164,
      "ç¿»è¯ĳæĪĲä¸Ńæĸĩ": 5165,
      "ä¼ļä¸įä¼ļ": 5166,
      "ç®ĢçĽ´": 5167,
      "ä½łä»¬çļĦ": 5168,
      "é¼İ": 5169,
      "åĲİèĢħ": 5170,
      "äººæĹı": 5171,
      "åİ¿": 5172,
      "æĦŁè§īåĪ°": 5173,
      "ä¸´æĹ¶": 5174,
      "è¡¨è¾¾äºĨ": 5175,
      "å¦»": 5176,
      "åªļ": 5177,
      "å¢ĥçļĦ": 5178,
      "ĠåĽłä¸º": 5179,
      "ç»ĵè®º": 5180,
      "æįī": 5181,
      "æ°§åĮĸ": 5182,
      "å¤ªè¿ĩ": 5183,
      "åıĽ": 5184,
      "è¿ĺæ²¡æľī": 5185,
      "æŁ¥è¯¢": 5186,
      "ä¿¡åı·": 5187,
      "æªĢ": 5188,
      "èĤļ": 5189,
      "è¿ĻæĿ¡": 5190,
      "è£¤": 5191,
      "Ġä¸İ": 5192,
      "çľ¼çľ¸": 5193,
      "The": 5194,
      "åİŁçĲĨ": 5195,
      "å®´": 5196,
      "Ġst": 5197,
      "çŁ®": 5198,
      "ä¸Ģäºĭ": 5199,
      "Ġç¬¬ä¸Ģ": 5200,
      "ä¸įè¶³": 5201,
      "æ»¡èĦ¸": 5202,
      "å±ķçİ°": 5203,
      "æıĲåĩº": 5204,
      "å®¤åĨħ": 5205,
      "çĮİæĿĢèĢħ": 5206,
      "ith": 5207,
      "éĩĳèŀį": 5208,
      "çļĦå¤ĸ": 5209,
      "éĿ¢ä¸´": 5210,
      "é»ĺé»ĺ": 5211,
      "éļ¾åº¦": 5212,
      "äºĭå®ŀä¸Ĭ": 5213,
      "åĲİç»Ń": 5214,
      "åľ¨åľ°ä¸Ĭ": 5215,
      "åıªè§ģ": 5216,
      "åĬĪ": 5217,
      "åįľ": 5218,
      "éĽķ": 5219,
      "éĹ®é¢ĺçļĦ": 5220,
      "éĩĬæĶ¾": 5221,
      "åĩºçİ°äºĨ": 5222,
      "æĺ¯è¦ģ": 5223,
      "åħīèĬĴ": 5224,
      "æĢİæł·": 5225,
      "ä¿Ĭ": 5226,
      "Ġnum": 5227,
      "åĲ¬çĿĢ": 5228,
      "éļıæĦı": 5229,
      "å¤ļçļĦ": 5230,
      "ç»Ĩèĥŀ": 5231,
      "å°ıéķĩ": 5232,
      "ation": 5233,
      "è½©": 5234,
      "æīĢæľīäººéĥ½": 5235,
      "æ¢¦æĥ³": 5236,
      "èĺĳ": 5237,
      "ä¸įåİ»": 5238,
      "éĻĽ": 5239,
      "ç¿°": 5240,
      "ç¢§": 5241,
      "æµĨ": 5242,
      "åĲįåı«": 5243,
      "åħ·å¤ĩ": 5244,
      "æĺĨ": 5245,
      "æĹ¥å¸¸": 5246,
      "æįŁå¤±": 5247,
      "ä¸ĭæĦıè¯Ĩ": 5248,
      "ä¸Ģå¤§": 5249,
      "ä½łæĥ³": 5250,
      "åĮĻ": 5251,
      "æĹłå°½": 5252,
      "å½¢æĢģ": 5253,
      "çŃ¹": 5254,
      "æīĵéĢł": 5255,
      "èĽĽ": 5256,
      "çķĻåľ¨": 5257,
      "èĺĳèıĩ": 5258,
      "äºĽä»Ģä¹Ī": 5259,
      "è¿ŀå¿Ļ": 5260,
      "ä¸ĢåĿĹ": 5261,
      "åľ¨äºİ": 5262,
      "æ¡Įä¸Ĭ": 5263,
      "ç»µ": 5264,
      "æĻĴ": 5265,
      "å¹´çºª": 5266,
      "ç²¹": 5267,
      "put": 5268,
      "æºħ": 5269,
      "èµĦæł¼": 5270,
      "çļĦåĲįåŃĹ": 5271,
      "åķª": 5272,
      "ä¸¤ç§į": 5273,
      "æĨ¾": 5274,
      "æĺ¯ä»ĸ": 5275,
      "æľīä¸ĢäºĽ": 5276,
      "ĠçľĭåĪ°": 5277,
      "ä½łè¦ģ": 5278,
      "å¢Ł": 5279,
      "åĽĽåĳ¨": 5280,
      "çļĦæĪĺ": 5281,
      "æį¡": 5282,
      "çļĦå®¶ä¼Ļ": 5283,
      "è¿ľè¿ľ": 5284,
      "èį£èĢĢ": 5285,
      "\\\\": 5286,
      "æĿĸ": 5287,
      "è´¤": 5288,
      "åĪ¶å®ļ": 5289,
      "å±±æ°´": 5290,
      "Ġ/": 5291,
      "ä¾ł": 5292,
      "æ¶¨": 5293,
      "çĭ¬èĩª": 5294,
      "end": 5295,
      "åİĦ": 5296,
      "å¦ĸæĹı": 5297,
      "ä»¥æĿ¥": 5298,
      "æ³Ĭ": 5299,
      "çĶŁæĦı": 5300,
      "æ¡¶": 5301,
      "æĢ§èĥ½": 5302,
      "çĶŁåĳ½åĢ¼": 5303,
      "å°ıçĭĹ": 5304,
      "ä»ĭç»įä¸Ģä¸ĭ": 5305,
      "å¥½çľĭ": 5306,
      "çĥ¹": 5307,
      "Ġå¯¹äºİ": 5308,
      "çļĦæķ°éĩı": 5309,
      "èµ°åĲĳ": 5310,
      "ä¸Ģå¼Ģå§ĭ": 5311,
      "ç¥ŀçģµ": 5312,
      "æ¡©": 5313,
      "èŀįåĲĪ": 5314,
      "ä¸«": 5315,
      "çļĦèº«å½±": 5316,
      "èĢ¸": 5317,
      "ç»ĦåĲĪ": 5318,
      "èįīèİĵ": 5319,
      "æĪĲå°±": 5320,
      "æ£į": 5321,
      "åĴĮåħ¶ä»ĸ": 5322,
      "ers": 5323,
      "æĺ¯æĢİä¹Ī": 5324,
      "å®ı": 5325,
      "åĴĮä»ĸ": 5326,
      "å·¥ç¨ĭ": 5327,
      "éĻ¨": 5328,
      "æıĲä¾Ľä¸Ģä¸ª": 5329,
      "åĬ¨äºĨ": 5330,
      "æī¿åıĹ": 5331,
      "çļĦåŃĺåľ¨": 5332,
      "æłĩé¢ĺ": 5333,
      "åįĵ": 5334,
      "ä¸ĭéĿ¢çļĦ": 5335,
      "åħµåĽ¢": 5336,
      "é¹ħ": 5337,
      "å¤įæĿĤçļĦ": 5338,
      "ä¸¥èĤĥ": 5339,
      "åĴ½": 5340,
      "è°ĥåĳ³": 5341,
      "èł¢": 5342,
      "åĮħåŃĲ": 5343,
      "å¾®ç¬ĳ": 5344,
      "æĪĳå¾Ī": 5345,
      "èī°": 5346,
      "å½Ĵç±»": 5347,
      "è¯ŃéŁ³": 5348,
      "ä¼¼çļĦ": 5349,
      "æľīå¤ļå°ĳ": 5350,
      "æ²«": 5351,
      "å¦¥": 5352,
      "æıĲä¾ĽäºĨ": 5353,
      "ç½¢äºĨ": 5354,
      "å¤©èµĭ": 5355,
      "éĥ½å·²ç»ı": 5356,
      "çĻ½å¤ľ": 5357,
      "ä¸Ģæł¹": 5358,
      "å¤§å¤ļæķ°": 5359,
      "ç©¿è¿ĩ": 5360,
      "ä¸įæĪĲ": 5361,
      "éĩĳèº«": 5362,
      "å¤«äºº": 5363,
      "åģľä¸ĭ": 5364,
      "éĻįä¸´": 5365,
      "å¼ķåĬĽ": 5366,
      "ç«ŀäºī": 5367,
      "çħİ": 5368,
      "åı¥åŃĲä¸Ń": 5369,
      "è¿Ļå®¶": 5370,
      "æ´ĭèĳ±": 5371,
      "å¾ĹåĪ°äºĨ": 5372,
      "ç¢İçīĩ": 5373,
      "çĮľæµĭ": 5374,
      "åīĳæ°Ķéķ¿åŁİ": 5375,
      "ĠG": 5376,
      "éĻ¡": 5377,
      "çŃīæĸ¹éĿ¢": 5378,
      "ab": 5379,
      "å¯¹ä»ĸ": 5380,
      "ç½ļ": 5381,
      "æ¼Ĩé»ĳ": 5382,
      "æĮł": 5383,
      "ĠĠĠ": 5384,
      "è¤": 5385,
      "ä¸įæŃ»": 5386,
      "æ²¡éĶĻ": 5387,
      "ï¼īï¼ļ": 5388,
      "åįİå¤ıåĨĽ": 5389,
      "ä»Ļäºº": 5390,
      "ly": 5391,
      "å®Ŀç®±": 5392,
      "ie": 5393,
      "çļĦåĨħå®¹": 5394,
      "çļĦçĽ®åħī": 5395,
      "é¸¿": 5396,
      "è¿Ļæľ¬ä¹¦": 5397,
      "åľ¨æŃ¤": 5398,
      "æ¬ł": 5399,
      "è®©å¥¹": 5400,
      "å¸ħ": 5401,
      "åºķä¸ĭ": 5402,
      "ä¹Łä¸įçŁ¥éģĵ": 5403,
      "æĦıå¤§åĪ©éĿ¢": 5404,
      "ä¸ĢåĪĢ": 5405,
      "ç»Ļäºº": 5406,
      "èĤł": 5407,
      "åĨįåĬłä¸Ĭ": 5408,
      "é¥±": 5409,
      "èĳ¡": 5410,
      "æĭ¿åĩº": 5411,
      "çĶ©": 5412,
      "()": 5413,
      "æīĭæĮģ": 5414,
      "æĪĳå°Ĩ": 5415,
      "æķ£æĸĩ": 5416,
      "äººæķ°": 5417,
      "èĲĦ": 5418,
      "æĥ³èµ·": 5419,
      "èģĶç½ĳ": 5420,
      "åıĤèĢĥ": 5421,
      "èĳ¡èĲĦ": 5422,
      "åĪ°è¾¾": 5423,
      "åĪĨèº«": 5424,
      "ç¿ł": 5425,
      "èıĮ": 5426,
      "Ġ'": 5427,
      "ä»ĸä¹Ł": 5428,
      "çļĦä¸Ģå£°": 5429,
      "ä»ģ": 5430,
      "çŃīçĿĢ": 5431,
      "æĺİäº®": 5432,
      "èĬ±åĽŃ": 5433,
      "äººç¾¤": 5434,
      "çİĭçļĦ": 5435,
      "åĪ©çĽĬ": 5436,
      "è£ħçĶ²": 5437,
      "éĻ¶": 5438,
      "èķī": 5439,
      "æ²¡äºĨ": 5440,
      "çģ«æĺŁ": 5441,
      "çĤ¹å¤´éģĵ": 5442,
      "å°ģåį°": 5443,
      "ä¿¯": 5444,
      "åĭĥ": 5445,
      "Ġun": 5446,
      "æĶ¶èİ·": 5447,
      "ht": 5448,
      "æµªè´¹": 5449,
      "æķ°æį®éĽĨ": 5450,
      "å¹¸è¿Ĳ": 5451,
      "Ġ12": 5452,
      "æīĵçł´": 5453,
      "å¸®æĪĳæĥ³": 5454,
      "ç»Īç©¶": 5455,
      "éĻ·åħ¥": 5456,
      "90": 5457,
      "çģµæĦŁ": 5458,
      "è¿Ļä¸ĢçĤ¹": 5459,
      "è¯Ńåı¥": 5460,
      "å°½éĩı": 5461,
      "Ġon": 5462,
      "åĸĤ": 5463,
      "åı¯èĥ½æĢ§": 5464,
      "è§Ĩè§ī": 5465,
      "èµĮ": 5466,
      "æ²¸": 5467,
      "å®£ä¼ł": 5468,
      "åĸĿéħĴ": 5469,
      "èĩªå®¶": 5470,
      "é¼ĵåĬ±": 5471,
      "åĳĪçİ°": 5472,
      "æħĪ": 5473,
      "å°Ĭéĩį": 5474,
      "300": 5475,
      "ä»£ä»·": 5476,
      "åĺīä¸ĸ": 5477,
      "æŃ¤åĲĮæĹ¶": 5478,
      "å½¢å®¹": 5479,
      "ç¥ŀæĺİ": 5480,
      "åŁºåĽł": 5481,
      "è¿ĩå¤´": 5482,
      "çİ»": 5483,
      "åģļåĪ°": 5484,
      "èĦļä¸ĭ": 5485,
      "åłµ": 5486,
      "æĶ¶çĽĬ": 5487,
      "Ġi": 5488,
      "å¿ħçĦ¶": 5489,
      "åķĨåºĹ": 5490,
      "æĪĳæĥ³çŁ¥éģĵ": 5491,
      "çĥ¤ç®±": 5492,
      "çļĦåİŁåĽł": 5493,
      "è¯ĦåĪĨ": 5494,
      "ĠJ": 5495,
      "èĢģçĪ·": 5496,
      "åķ§": 5497,
      "ä¸Ńå¹´": 5498,
      "æĿ¥æºĲ": 5499,
      "ä»ĸå°±": 5500,
      "å¹²åĩĢ": 5501,
      "æĸŃäºĨ": 5502,
      "åĵ²åŃ¦": 5503,
      "æŃĮè¯į": 5504,
      "ĠãĢĬ": 5505,
      "æ¸ħæ´ģ": 5506,
      "éĤĢè¯·": 5507,
      "çļĦéĿ¢": 5508,
      "çļĦè¡Ģ": 5509,
      "éĥ½å¾Ī": 5510,
      "è¿Ļä¸ĢåĪ»": 5511,
      "åıªä¼ļ": 5512,
      "æĽ´é«ĺ": 5513,
      "ãĢĤ-": 5514,
      "éĿĻéĿĻ": 5515,
      "èĿ¶": 5516,
      "åŃĲå¼¹": 5517,
      "æ»ŀ": 5518,
      "çĭ®åŃĲ": 5519,
      "çĿ£": 5520,
      "åįĬçĤ¹": 5521,
      "éķĩå¤©çİĭ": 5522,
      "å¦ĩäºº": 5523,
      "ç¾İåĳ³çļĦ": 5524,
      "ç½Ĳ": 5525,
      "åĹĵ": 5526,
      "èĳĹåĲį": 5527,
      "çīĪæľ¬": 5528,
      "ä¸°å¯ĮçļĦ": 5529,
      "æľīåı¯èĥ½": 5530,
      "æ³Ħ": 5531,
      "ä¿ĥè¿Ľ": 5532,
      "Ġå´Ķä¸ľå±±": 5533,
      "åĴļ": 5534,
      ".ãĢĬ": 5535,
      "for": 5536,
      "æľ½": 5537,
      "åı¯ä»¥çĶ¨": 5538,
      "åı¤æĢª": 5539,
      "äººä»¬çļĦ": 5540,
      "çĳľä¼½": 5541,
      "ä¿¡ä»»": 5542,
      "æ²Ļåıĳ": 5543,
      "é£İæļ´": 5544,
      "åľ¨è¿ĻæĹ¶": 5545,
      "èģļéĽĨ": 5546,
      "ä¸įè¿ľå¤Ħ": 5547,
      "åĽŀå®¶": 5548,
      "æľºæŀĦ": 5549,
      "å±ĢéĿ¢": 5550,
      "å®Ŀçĵ¶æ´²": 5551,
      "ä½łèİ·å¾Ĺ": 5552,
      "å²Ĥ": 5553,
      "æĺ¥å¤©": 5554,
      "è´¢å¯Į": 5555,
      "éĿŀå¸¸æĦŁè°¢": 5556,
      "æ¯Ķèµ·": 5557,
      "éŃģ": 5558,
      "è¯¦ç»ĨçļĦ": 5559,
      "é»Ħéĩĳ": 5560,
      "æ§½": 5561,
      "æīįä¼ļ": 5562,
      "åıĳå¸ĥ": 5563,
      "å»ºè®®æĤ¨": 5564,
      "åĲİéĿ¢": 5565,
      "åĩłåı¥": 5566,
      "åĪºæ¿Ģ": 5567,
      "æ¶µ": 5568,
      "åħ«åĵģ": 5569,
      "åī§æĥħ": 5570,
      "æķ°åĪĹ": 5571,
      "çļĦä¸Ģç§į": 5572,
      "æĶ¹åĸĦ": 5573,
      "æ²Ļæĭī": 5574,
      "æĹ©ä¸Ĭ": 5575,
      "è¿Ļä¸Ģå¹ķ": 5576,
      "æľĿå»·": 5577,
      "Ġæ¥ļåħī": 5578,
      "ç¨įå¾®": 5579,
      "ä¹ı": 5580,
      "æĻ¯èī²": 5581,
      "åı¯æĮģç»Ń": 5582,
      "åĽĬ": 5583,
      "ç§Ł": 5584,
      "éĻ¤ä»¥": 5585,
      "äºŃ": 5586,
      "ä¸įä¹ħ": 5587,
      "æĮĩå¯¼": 5588,
      "éĻ¤æŃ¤": 5589,
      "å¯¹çĿĢ": 5590,
      "å¥³å·«": 5591,
      "å¤§çº¦": 5592,
      "éļĲç§ģ": 5593,
      "Ġæľī": 5594,
      "éĴ±å¸ģ": 5595,
      "è¡į": 5596,
      "ä¼łéĢĴ": 5597,
      "å¤ķ": 5598,
      "ä¸ĭåįĪ": 5599,
      "è¿ĽåĮĸ": 5600,
      "åı£ä¸Ń": 5601,
      "æĳĶ": 5602,
      "åĬĿ": 5603,
      "æĸĩç«łä¸Ń": 5604,
      "åıĳçİ°äºĨ": 5605,
      "æĪĳè¿ĺ": 5606,
      "è´º": 5607,
      "è¡¨æ¼Ķ": 5608,
      "çŁŃæĸĩ": 5609,
      "ä¸Ģå®ļè¦ģ": 5610,
      "å¨ħ": 5611,
      "å¿ĺè®°": 5612,
      "å¾½": 5613,
      "æīĭçļĦ": 5614,
      "è¿ģ": 5615,
      "è¢«ç§°ä¸º": 5616,
      "çĶ·åŃ©": 5617,
      "ç¬¼ç½©": 5618,
      "èĢģæĿ¿": 5619,
      "çī¹å®ļ": 5620,
      "åİŁå§ĭ": 5621,
      "çİ»çĴĥ": 5622,
      "ç¾İå¦Ļ": 5623,
      "å¾Ģå¾Ģ": 5624,
      "Ġä¼Ĺäºº": 5625,
      "éĽĢ": 5626,
      "çĥŃæĥħ": 5627,
      "èĸ¯": 5628,
      "ĠR": 5629,
      "é©»": 5630,
      "æĸĩæľ¬ä¸Ń": 5631,
      "è¾ĪåŃĲ": 5632,
      "èĤ´": 5633,
      "æº¢": 5634,
      "åı¯ä»¥è®©": 5635,
      "çĳ°": 5636,
      "æłı": 5637,
      "å±±çļĦ": 5638,
      "æ°´æĻ¶": 5639,
      "çĹĽèĭ¦": 5640,
      "å³¡": 5641,
      "é¤ĲåİħçļĦ": 5642,
      "ä¸Ģæĭ³": 5643,
      "å¼¦": 5644,
      "åįģåĽĽ": 5645,
      "èĽĭçĻ½": 5646,
      "éĴ¢éĵģ": 5647,
      "çº¯ç²¹": 5648,
      "æģŃ": 5649,
      "ä»Ģä¹ĪæĹ¶åĢĻ": 5650,
      "å±±ä¸»": 5651,
      "åıĹæ¬¢è¿İçļĦ": 5652,
      "python": 5653,
      "ä¹ĭæīĢä»¥": 5654,
      "ÃĹ": 5655,
      "è¯´å®Į": 5656,
      "éĥ¡": 5657,
      "å¤ļå¹´": 5658,
      "çļĦåīį": 5659,
      "ä¸Ģåı£æ°Ķ": 5660,
      "éĵĥ": 5661,
      "è¥¿çıŃ": 5662,
      "åĮħè£¹": 5663,
      "åĦ¿çļĦ": 5664,
      "çº¢èī²çļĦ": 5665,
      "æĭĨ": 5666,
      "æĮ¨": 5667,
      "è¥¿çıŃçīĻ": 5668,
      "çĪ±å¥½": 5669,
      "ç¦»å¼ĢäºĨ": 5670,
      "äºĨåĩºæĿ¥": 5671,
      "éĻĽä¸ĭ": 5672,
      "ä¸ĢåįĬ": 5673,
      "å¤ıæĹ¥": 5674,
      "ä¸īä½į": 5675,
      "çļĦä¸ĢåĪĩ": 5676,
      "è¶³å¤ŁçļĦ": 5677,
      "æľ±æķĽ": 5678,
      "ult": 5679,
      "ä¸§": 5680,
      "äº¦": 5681,
      "åĬ«": 5682,
      "ä½łè¿Ļ": 5683,
      "ä½łå¥½": 5684,
      "æĦģ": 5685,
      "èĲĮ": 5686,
      "åĩłæ¬¡": 5687,
      "è¿Ĳè¡Į": 5688,
      "ä¸ºæĤ¨æıĲä¾Ľ": 5689,
      "Ġåħ¶å®ŀ": 5690,
      "ä¸Ģåı¥è¯Ŀ": 5691,
      "æĪĳçŁ¥éģĵ": 5692,
      "ä½łä¼ļ": 5693,
      "äººå®¶": 5694,
      "èĢ¶": 5695,
      "å¤ªç©º": 5696,
      "ä¸»è§Ĵ": 5697,
      "æ¯«ä¸į": 5698,
      "åħ¬åħ±": 5699,
      "ä¸ĩäºº": 5700,
      "é¡ºåĪ©": 5701,
      "è·ª": 5702,
      "åĨįè¯´": 5703,
      "è®²ä¸Ģä¸ª": 5704,
      "åľ°ä¸ĭ": 5705,
      "çľĭåĩº": 5706,
      "å®°": 5707,
      "æłĩå¿Ĺ": 5708,
      "æłĭ": 5709,
      "çī¹èī²": 5710,
      "ç¥ŀåħµ": 5711,
      "èĢħä»¬": 5712,
      "åĲĮä¹īè¯į": 5713,
      "æ»¡äºĨ": 5714,
      "ä¿¡ä»°": 5715,
      "å¿ĺäºĨ": 5716,
      "å¨±": 5717,
      "çŃīé¢ĨåŁŁ": 5718,
      "åĪ«è¯´": 5719,
      "å±ł": 5720,
      "æĹłå£°": 5721,
      "2021": 5722,
      "çļĦéĢŁåº¦": 5723,
      "å½ĵåľ°çļĦ": 5724,
      "åıĪæľī": 5725,
      "åĩºæĿ¥äºĨ": 5726,
      "ç¦»åİ»": 5727,
      "åĪĽå»ºä¸Ģä¸ª": 5728,
      "å¤©åĲ¯": 5729,
      "ä½ĵç³»": 5730,
      "Ġj": 5731,
      "è§Ī": 5732,
      "åĵ¨": 5733,
      "çĲ³": 5734,
      "é£Łè°±": 5735,
      "é¦Ļèķī": 5736,
      "èī¯å¥½çļĦ": 5737,
      "ĠÃ·": 5738,
      "å¼Ĥèĥ½": 5739,
      "pe": 5740,
      "çĶ¨äºĨ": 5741,
      "ä¸ĢåĲĮ": 5742,
      "å¡Į": 5743,
      "åĲĥäºĨ": 5744,
      "éĥ¨çļĦ": 5745,
      "èµ°è¿Ľ": 5746,
      "ä¸įå·²": 5747,
      "åŃĹçļĦ": 5748,
      "æĶ¾ä¸ĭ": 5749,
      "ĠéĿĴ": 5750,
      "å©ī": 5751,
      "æ²¿çĿĢ": 5752,
      "åľ¨çº¿": 5753,
      "åĵĳ": 5754,
      "å¯¹äºĨ": 5755,
      "è¯·å¸®æĪĳ": 5756,
      "å¤´é¡¶": 5757,
      "éħª": 5758,
      "åĳ¼åķ¸": 5759,
      "éĤ»": 5760,
      "ä¾¿å®ľ": 5761,
      "èĲ½åľ°": 5762,
      "ĠèĢģäºº": 5763,
      "èº«ä¸ĬçļĦ": 5764,
      "åºĶçĶ¨ç¨ĭåºı": 5765,
      "çģµéŃĤéĴ±å¸ģ": 5766,
      "ĠåĨĻä¸Ģç¯ĩåħ³äºİ": 5767,
      "ä¸Ģåı£": 5768,
      "å°ıçĮ«": 5769,
      "å®¶ä¹¡": 5770,
      "ä¹¦éĻ¢": 5771,
      "æĭ¿èµ·": 5772,
      "ĠåĴĮ": 5773,
      "ä¸Ĭç©º": 5774,
      "æµ´": 5775,
      "éª¨éª": 5776,
      "è´¨çļĦ": 5777,
      "å®Įç¾İ": 5778,
      "Ġla": 5779,
      "åı¯ä¸įæĺ¯": 5780,
      "åªĴä½ĵ": 5781,
      "åľ¨å¤§": 5782,
      "å«©": 5783,
      "ex": 5784,
      "å¤´åıĳ": 5785,
      "çĿĢçļĦ": 5786,
      "å´ĩ": 5787,
      "èµ·çļĦ": 5788,
      "æľĢåĪĿ": 5789,
      "ç¥ŀçĪ¶": 5790,
      "ä¸»ä¹ī": 5791,
      "è§Ĩéĩİ": 5792,
      "æĪĳå·²ç»ı": 5793,
      "è¸¢": 5794,
      "è¿Ļä¸įæĺ¯": 5795,
      "é¢Ħç®Ĺ": 5796,
      "çļĦå»ºè®®": 5797,
      "å¯¹è±¡": 5798,
      "og": 5799,
      "åħĶåŃĲ": 5800,
      "æī®": 5801,
      "ç»§ç»Ńè¯´éģĵ": 5802,
      "éª¨éª¼": 5803,
      "ç®ĵ": 5804,
      "è¯Ħä¼°": 5805,
      "å·¥ä¸ļ": 5806,
      "èĽ®èįĴ": 5807,
      "åı¯ä»¥å°Ĩ": 5808,
      "çļĦå°ıè¯´": 5809,
      "çĽ¸åĬł": 5810,
      "èĤĮèĤī": 5811,
      "è¿Ļä¹Łæĺ¯": 5812,
      "æľĢä½İ": 5813,
      "çĻ¾åĪĨ": 5814,
      "ç®Ģæ´ģ": 5815,
      "çļĦèº«ä½ĵ": 5816,
      "è¿Ļéģĵ": 5817,
      "åľŁåľ°": 5818,
      "èķ´": 5819,
      "éĤ£åĲį": 5820,
      "éģĵçļĦ": 5821,
      "èİ²": 5822,
      "æīĭæİĮ": 5823,
      "ä¸Ģå®ļä¼ļ": 5824,
      "æĽ¿æį¢": 5825,
      "Ġæĺ¯": 5826,
      "æ¡Ĳåı¶": 5827,
      "æľīåĬ©äºİ": 5828,
      "æĵħéķ¿": 5829,
      "ï¼Łï¼Ł": 5830,
      "è¡Įäºº": 5831,
      "åĪĨæĪĲ": 5832,
      "å®ģéĿĻ": 5833,
      "æĭħä»»": 5834,
      "ä¸Ī": 5835,
      "å¸Ĳ": 5836,
      "éĤ£åıª": 5837,
      "å¯¹éĿ¢": 5838,
      "æĿĢäºº": 5839,
      "ate": 5840,
      "çļĦåħ³ç³»": 5841,
      "å¤ļæł·": 5842,
      "åıĹä¼¤": 5843,
      "AIè¯Ńè¨Ģæ¨¡åŀĭ": 5844,
      "Ġä¸¤äºº": 5845,
      "èĵĿèī²çļĦ": 5846,
      "å¯»å¸¸": 5847,
      "ä¸Ģæīĭ": 5848,
      "åĪĨå¸ĥ": 5849,
      "åīįè¡Į": 5850,
      "çľŁçİĭ": 5851,
      "å¨±ä¹Ĳ": 5852,
      "åĴĴ": 5853,
      "åĽŀå½Ĵ": 5854,
      "ä¸»æķĻ": 5855,
      "çŃĸçķ¥": 5856,
      "å¯¼å¸Ī": 5857,
      "Ġare": 5858,
      "é¢Ĩè¢ĸ": 5859,
      "è¯´è¿ĩ": 5860,
      "ord": 5861,
      "æĬ¬èµ·å¤´": 5862,
      "è½¬æį¢ä¸º": 5863,
      "å®Ľå¦Ĥ": 5864,
      "è°ľ": 5865,
      "è£ģ": 5866,
      "åĭī": 5867,
      "Ġli": 5868,
      "æĦ¤æĢĴ": 5869,
      "Ġéĺ¿": 5870,
      "æĸ¹éķ¿": 5871,
      "å¾®é£İ": 5872,
      "è¿Ļå°±": 5873,
      "éĻ¡çĦ¶": 5874,
      "45": 5875,
      "æĺ¯ä¸ºäºĨ": 5876,
      "åŁİå¢Ļ": 5877,
      "\"ãĢĤ": 5878,
      "æĹłæķĮ": 5879,
      "çļĦåĢ¼": 5880,
      "æĪĺå£«": 5881,
      "åıĺå¾ĹæĽ´åĬł": 5882,
      "ä¸įä¸Ģæł·": 5883,
      "åĩºèº«": 5884,
      "æµ·ä¸Ń": 5885,
      "æķ´ä½ĵ": 5886,
      "å¢ŀéķ¿": 5887,
      "ç»³": 5888,
      "åģļäºĨ": 5889,
      "ä»ĸä»¬åľ¨": 5890,
      "åŁİå¸ĤçļĦ": 5891,
      "åµ": 5892,
      "å°±è¿ŀ": 5893,
      "å¦Ĥæŀľä½łåĸľæ¬¢": 5894,
      "éĻ¤æŃ¤ä¹ĭå¤ĸ": 5895,
      "æľĢä¸º": 5896,
      "èĢģé¼ł": 5897,
      "åī©ä½Ļ": 5898,
      "æĴ¼": 5899,
      "éĿĴç«¹": 5900,
      "æ·¬": 5901,
      "åĴĮæĪĳ": 5902,
      "ä¸ĭæĸ¹": 5903,
      "åı«åģļ": 5904,
      "è¶´": 5905,
      "èĢģå¤«": 5906,
      "åĻ©": 5907,
      "æ»¡æĺ¯": 5908,
      "åįĬå¾Ħ": 5909,
      "åĪĽä½ľä¸Ģé¦ĸ": 5910,
      "ci": 5911,
      "çļĦåı¥åŃĲ": 5912,
      "ç§įåŃĲ": 5913,
      "æıĲåĪ°": 5914,
      "èĥĸèĥĸ": 5915,
      "ä¼ĺåĮĸ": 5916,
      "Â°": 5917,
      "çİ°åľº": 5918,
      "åħ¬çĪµ": 5919,
      "ĠN": 5920,
      "è¿Ļè¯Ŀ": 5921,
      "åĿĢ": 5922,
      "ä»İæľª": 5923,
      "è¿ŀç»Ń": 5924,
      "Â·Â·Â·Â·Â·Â·âĢĿ": 5925,
      "çŁŃæļĤ": 5926,
      "ä¸ĢèĦī": 5927,
      "èĬ³": 5928,
      "è´Ŀå°Ķ": 5929,
      "äºĶåįģ": 5930,
      "è´¹çĶ¨": 5931,
      "ä»¥æŃ¤": 5932,
      "è¿ĩäºİ": 5933,
      "çªĥ": 5934,
      "è¿Ļæ¬¾": 5935,
      "æ°¢": 5936,
      "æ²¡éĹ®é¢ĺ": 5937,
      "åĽ½éĻħ": 5938,
      "åį«æĺŁ": 5939,
      "åī¯æľ¬": 5940,
      "å·²çŁ¥": 5941,
      "å®¢äºº": 5942,
      "ç¬¦åı·": 5943,
      "æŀĦæĪĲ": 5944,
      "æŀľå£³": 5945,
      "éŁµ": 5946,
      "çĽ®çļĦåľ°": 5947,
      "æ·±æ·±": 5948,
      "ç»Łè®¡": 5949,
      "å®ĿçŁ³": 5950,
      "Ġé«ĺ": 5951,
      "å¤§åŀĭ": 5952,
      "åĮºçļĦ": 5953,
      "åĲµ": 5954,
      "åºĩ": 5955,
      "ç¼ķ": 5956,
      "è®¸ä¹ħ": 5957,
      "è¶³ä»¥": 5958,
      "åŁ¹åħ»": 5959,
      "Ġç¬¬äºĮ": 5960,
      "å®ļäºĨ": 5961,
      "åľºä¸Ĭ": 5962,
      "æĻ¶ä½ĵ": 5963,
      "åĵģå°Ŀ": 5964,
      "æĹ©é¤Ĳ": 5965,
      "æĪĳæĥ³è¦ģ": 5966,
      "éģĹæĨ¾": 5967,
      "28": 5968,
      "æĺ¯è¢«": 5969,
      "å¯º": 5970,
      "åıªéľĢè¦ģ": 5971,
      "ç©Ĩ": 5972,
      "æĢĿç´¢": 5973,
      "çļĦé¢ľèī²": 5974,
      "ä¾¦": 5975,
      "è´¾": 5976,
      "å½Ĵç±»ä¸º": 5977,
      "ĠåĲ´": 5978,
      "Ġè£´éĴ±": 5979,
      "å¿ĥèĦı": 5980,
      "ä¸īçķĮ": 5981,
      "æĴĩ": 5982,
      "æĻ´æľĹ": 5983,
      "ure": 5984,
      "å°¬": 5985,
      "å·¨çŁ³": 5986,
      "æĭ¿çĿĢ": 5987,
      "Ġä¸¤": 5988,
      "å·¡": 5989,
      "ä¸įæŃ¢": 5990,
      "æĪĳåİ»": 5991,
      "å¥³åĦ¿": 5992,
      "è§Ĩé¢ĳ": 5993,
      "æ°ıåº¦": 5994,
      "çĶŁæŃ»": 5995,
      "ä¹ĥ": 5996,
      "æĦıå¿Ĺ": 5997,
      "ä¸ªæĢ§": 5998,
      "åıĬæĹ¶": 5999,
      "Ġä»¥": 6000,
      "æ³¨éĩį": 6001,
      "åĭĩæ°Ķ": 6002,
      "åĴ¨": 6003,
      "æ²¡åĬŀæ³ķ": 6004,
      "åĩºçİ°çļĦ": 6005,
      "åĹ¤": 6006,
      "æĻĭåįĩ": 6007,
      "):": 6008,
      "æĢľ": 6009,
      "éĺ®": 6010,
      "ä¿®éģĵ": 6011,
      "é²¸": 6012,
      "åĴª": 6013,
      "è¿ĻæĹ¶": 6014,
      "ä¸Ģéĥ¨": 6015,
      "ä¸įæĩĤ": 6016,
      "æľīè®¸å¤ļ": 6017,
      "éĢ¸": 6018,
      "çĽĨ": 6019,
      "è½´": 6020,
      "è¡Įé©¶": 6021,
      "åĨĮ": 6022,
      "æĽ¦": 6023,
      "ç´§æİ¥çĿĢ": 6024,
      "åĴ¨è¯¢": 6025,
      "åĽŀäºĨ": 6026,
      "è§Ĩä¸º": 6027,
      "éļĲçº¦": 6028,
      "å°ıé¸Ł": 6029,
      "èº«é«ĺ": 6030,
      "è°Ĭ": 6031,
      "æłĳåı¶": 6032,
      "ä¸įå¾Ĺä¸į": 6033,
      "75": 6034,
      "åįĥä¸ĩ": 6035,
      "æĻķ": 6036,
      "æ¸´": 6037,
      "è±¹": 6038,
      "å£¤": 6039,
      "æ¬¡æķ°": 6040,
      "åĲĥé¥Ń": 6041,
      "çĢº": 6042,
      "çļĦæ°Ķæģ¯": 6043,
      "èĲ½çļĦ": 6044,
      "æŁļ": 6045,
      "è¿ľçļĦ": 6046,
      "å½ĵä½ł": 6047,
      "äºĨä¸Ģç§į": 6048,
      "å¤ľåįģ": 6049,
      "æ¸ł": 6050,
      "éĵ¸": 6051,
      "å¤ĦçļĦ": 6052,
      "ä½¿çĶ¨çļĦ": 6053,
      "æııç»ĺ": 6054,
      "äººåı£": 6055,
      "åı¯ä»¥éĢīæĭ©": 6056,
      "å¹¶å°Ĩ": 6057,
      "Ġä»ĸçļĦ": 6058,
      "æłĳæľ¨": 6059,
      "ä¼Ĳ": 6060,
      "æ³ķåĽ½": 6061,
      "åħīçº¿": 6062,
      "åĶĩ": 6063,
      "å®¢æ°Ķ": 6064,
      "å°´": 6065,
      "åħ¨åĬĽ": 6066,
      "æģĲæĥ§": 6067,
      "å¦Ĥæŀľä½łæĥ³": 6068,
      "çī©çĲĨåŃ¦": 6069,
      "å°´å°¬": 6070,
      "çļĦè¯´éģĵ": 6071,
      "ç«ĸ": 6072,
      "æº¶": 6073,
      "æľīäºĽä¸į": 6074,
      "ĠèĢĮä¸Ķ": 6075,
      "å®¶åħ·": 6076,
      "å±±èĦī": 6077,
      "èº«ç©¿": 6078,
      "è¿ĻéĩĮçļĦ": 6079,
      "å°±è¿Ļä¹Ī": 6080,
      "ä½ĵç§¯": 6081,
      "åĵģç§į": 6082,
      "å´ĶçĢº": 6083,
      "çĽĪ": 6084,
      "çľĭæ³ķ": 6085,
      "å®¶å±ħ": 6086,
      "em": 6087,
      "æĤį": 6088,
      "é¦¨": 6089,
      "éĤ¦": 6090,
      "æĶ¹è¿Ľ": 6091,
      "Ġåĳ¨": 6092,
      "é¢ĨåŁŁçļĦ": 6093,
      "çİĭåĽ½": 6094,
      "æļĳ": 6095,
      "æĭįäºĨ": 6096,
      "ç»ĻæĤ¨": 6097,
      "ç¥ŀæķĻ": 6098,
      "çº¦ä¸º": 6099,
      "èļĬ": 6100,
      "å¥³å£«": 6101,
      "æŃ¤äºº": 6102,
      "èĻ¹": 6103,
      "èĬĿå£«": 6104,
      "36": 6105,
      "ä¸ĢæĶ¯": 6106,
      "çļĦéķ¿": 6107,
      "åĩºçĶŁ": 6108,
      "èĨĿ": 6109,
      "ä½łè§īå¾Ĺ": 6110,
      "å¥½äºĭ": 6111,
      "å¾Ĺå¾Ī": 6112,
      "èĬ½": 6113,
      "æīĵéĩı": 6114,
      "æ¢¨": 6115,
      "å¤±æľĽ": 6116,
      "éĴ¥": 6117,
      "æľīä¸Ģå¤©": 6118,
      "åģľæŃ¢": 6119,
      "Ġwith": 6120,
      "ue": 6121,
      "ä»¥ç¡®ä¿Ŀ": 6122,
      "è·»": 6123,
      "åĥµ": 6124,
      "åħīçļĦ": 6125,
      "æĬĢæľ¯çļĦ": 6126,
      "çłĸ": 6127,
      "åįłæį®": 6128,
      "å¤įèĭı": 6129,
      "ä»ħä»ħ": 6130,
      "éĢĽ": 6131,
      "çĬ¹å¦Ĥ": 6132,
      "ç©ºæ°Ķä¸Ń": 6133,
      "æĹĭè½¬": 6134,
      "ä¸Ĭæĸ¹": 6135,
      "è½»å£°": 6136,
      "çĪ·çĪ·": 6137,
      "æľĢåĸľæ¬¢çļĦ": 6138,
      "éļĭ": 6139,
      "æŃ£å¥½": 6140,
      "éŁ¦": 6141,
      "æ±īåŃĲ": 6142,
      "é¥¿": 6143,
      "åĲĥçļĦ": 6144,
      "åĩºèī²": 6145,
      "æıŃ": 6146,
      "å¤©æ°Ķé¢ĦæĬ¥": 6147,
      "è¿Ļè®©": 6148,
      "åĤħ": 6149,
      "æ°¸æģĴ": 6150,
      "åĴĮä½ł": 6151,
      "éŃĶåĬĽ": 6152,
      "æľĢè¿ĳçļĦ": 6153,
      "ä¸ĢèĦļ": 6154,
      "å¦į": 6155,
      "ç¿»è¯ĳæĪĲæ³ķè¯Ń": 6156,
      "çĮ©çº¢": 6157,
      "æªĢåĦ¿": 6158,
      "ä¸Ģéĥ¨åĪĨ": 6159,
      "è¾ĵåĩºç»ĵæŀľ": 6160,
      "Lv": 6161,
      "å¿ĥæĢĿ": 6162,
      "åĬ¨éĿĻ": 6163,
      "ä½¿åħ¶": 6164,
      "æĺŁéĻħ": 6165,
      "åĩºåıĳ": 6166,
      "å·®å¼Ĥ": 6167,
      "éĻĮçĶŁ": 6168,
      "ä¸ŃéĹ´": 6169,
      "åĻĹ": 6170,
      "ä»Ĩ": 6171,
      "å°½åı¯èĥ½": 6172,
      "å¯»æ±Ĥ": 6173,
      "è¯¡å¼Ĥ": 6174,
      "è¿Ļäºĭ": 6175,
      "ä»ĸå·²ç»ı": 6176,
      "èĤĨ": 6177,
      "ä¸Ĭä¸ĭæĸĩ": 6178,
      "æĽ´ä¸º": 6179,
      "æĬļ": 6180,
      "æĭİ": 6181,
      "éĩıçļĦ": 6182,
      "ç´«èī²": 6183,
      "ç»´æĬ¤": 6184,
      "åĨłåĨĽ": 6185,
      "Ġqu": 6186,
      "åı®": 6187,
      "èĤ¢": 6188,
      "____": 6189,
      "æĪĳæĿ¥": 6190,
      "åĵĢ": 6191,
      "æ¨¡ç³Ĭ": 6192,
      "çİ©ç¬ĳ": 6193,
      "è§īå¾Ĺèĩªå·±": 6194,
      "çĽ¸åıį": 6195,
      "%ãĢĤ": 6196,
      "ä¸Ģä¸Ŀ": 6197,
      "éª¸": 6198,
      "æ²¡èĥ½": 6199,
      "èģĶçĽŁçļĦ": 6200,
      "Ġr": 6201,
      "å¹´æĿ¥": 6202,
      "éĤ£è¾¹çļĦ": 6203,
      "çĳ¶": 6204,
      "åĢ¦": 6205,
      "å®ļå¾ĭ": 6206,
      "æİĴåĲį": 6207,
      "æĥĬåĸľ": 6208,
      "çĿĢå¤´": 6209,
      "èĢģçĮ«": 6210,
      "Ġan": 6211,
      "Ġle": 6212,
      "å¾®ç¬ĳéģĵ": 6213,
      "é©¬è½¦": 6214,
      "oun": 6215,
      "åĬ¨æīĭ": 6216,
      "è±¡å¾ģ": 6217,
      "ill": 6218,
      "NA": 6219,
      "åĲ¾": 6220,
      "ä¸Ģä¸ªä¸ª": 6221,
      "æİĮæİ§": 6222,
      "è¿Ĳæ°Ķ": 6223,
      "çĪ¶æ¯į": 6224,
      "å«¡": 6225,
      "éĢ¢": 6226,
      "æĪĸèĢħè¯´": 6227,
      "çļĦæ°Ķ": 6228,
      "ä½ĨæĪĳ": 6229,
      "åİŁåŃĲ": 6230,
      "æķ´çĲĨ": 6231,
      "********": 6232,
      "å¯¹æŃ¤": 6233,
      "çī©ç§į": 6234,
      "èĢģç¥ĸ": 6235,
      "èĻ¾": 6236,
      "éĻ¤éĿŀ": 6237,
      "list": 6238,
      "å¤·": 6239,
      "ä¹ĭåīįçļĦ": 6240,
      "è¡¥åħħ": 6241,
      "èĻ½è¯´": 6242,
      "Ġen": 6243,
      "ä»Ĭå¹´": 6244,
      "é¡¾çĴ¨": 6245,
      "2022": 6246,
      "çĶŁæĢģç³»ç»Ł": 6247,
      "æĺĤ": 6248,
      "ä¸ĭä¸Ģä¸ª": 6249,
      "çĭĦ": 6250,
      "åĵªç§į": 6251,
      "è§ĦåĪĴ": 6252,
      "å¼ĵ": 6253,
      "èĪĮ": 6254,
      "é¥ª": 6255,
      "é¡ºçĿĢ": 6256,
      "ä¸ĢæĹģçļĦ": 6257,
      "çĥ¹é¥ª": 6258,
      "'s": 6259,
      "æīĽ": 6260,
      "ç§ĳåŃ¦å®¶": 6261,
      "åĲĬ": 6262,
      "çº¤": 6263,
      "è·Į": 6264,
      "èģĶæīĭ": 6265,
      "éī": 6266,
      "åĪ°çİ°åľ¨": 6267,
      "éĤ¸": 6268,
      "ç§©": 6269,
      "æ¨¡æĭŁ": 6270,
      "çĻ¾éĩĮèĥĸèĥĸ": 6271,
      "éī´": 6272,
      "çĻ½çļĦ": 6273,
      "åľ°çĲĥçļĦ": 6274,
      "æĦīå¿«": 6275,
      "åĪĨéħį": 6276,
      "å®ļåĪ¶": 6277,
      "å·²æĺ¯": 6278,
      "å¼ĢçļĦ": 6279,
      "ç¥ŀç§ĺçļĦ": 6280,
      "è°¨æħİ": 6281,
      "èµ·æºĲ": 6282,
      "ä¸ĥåĵģ": 6283,
      "ä¸īå¤§æĸĩæĺİ": 6284,
      "æ°Ķå£«": 6285,
      "å§ľå°ļ": 6286,
      "ä¸Ģå±Ĥ": 6287,
      "å¤§å¤ı": 6288,
      "ä¸İä»ĸ": 6289,
      "çİ©èĢį": 6290,
      "ĠæıĲç¤º": 6291,
      "å¦Ĥä½ķåĪ¶ä½ľ": 6292,
      "èıľèĤ´": 6293,
      "éĺ²æŃ¢": 6294,
      "ĠæľĢåĲİ": 6295,
      "æĪĺçļĦ": 6296,
      "åıĤæķ°": 6297,
      "ĠæŃ¤æĹ¶": 6298,
      "è¿Ļä¸ªäºº": 6299,
      "åĲĳçĿĢ": 6300,
      "ä»¥ä¸ĭåı¥åŃĲ": 6301,
      "éĽĨä¸Ń": 6302,
      "Ġéĥĳ": 6303,
      "å¸Ĩ": 6304,
      "åŃĺåĤ¨": 6305,
      "è®¤çŁ¥": 6306,
      "å¯Ĩçłģ": 6307,
      "æĪĳæ²¡æľī": 6308,
      "åľ°ä½į": 6309,
      "æ²¡æľīäºº": 6310,
      "ç¨¿": 6311,
      "è§Ħå¾ĭ": 6312,
      "ä¾¯": 6313,
      "å¥³ç¥ŀ": 6314,
      "æºľ": 6315,
      "åĨ»": 6316,
      "æĬ¼": 6317,
      "æ£ĺ": 6318,
      "è½¦è¾Ĩ": 6319,
      "æĹģè¾¹çļĦ": 6320,
      "od": 6321,
      "æĿı": 6322,
      "è¯·è¾ĵåħ¥": 6323,
      "åįļçī©": 6324,
      "Ġåıªæĺ¯": 6325,
      "çļĦçģ«": 6326,
      "åı¯éĿł": 6327,
      "åİ»æī¾": 6328,
      "èĭıæ²Ĳ": 6329,
      "æĮĩç¤º": 6330,
      "ä½łå°±": 6331,
      "åĽłæŀľ": 6332,
      "åĽĽäºº": 6333,
      "æ¼Ķåĳĺ": 6334,
      "æ¸¡èĪ¹": 6335,
      "æĭįäºĨæĭį": 6336,
      "å°ī": 6337,
      "åı¯ä»¥æł¹æį®": 6338,
      "èĲĿåįľ": 6339,
      "è£ķ": 6340,
      "ç®¡çĲĨèĢħ": 6341,
      "åĬ£": 6342,
      "è±ĨèħĲ": 6343,
      "ãĢĤãĢĬ": 6344,
      "äº«çĶ¨": 6345,
      "Ġè§ģ": 6346,
      "çļĦè¡Įä¸º": 6347,
      "æģį": 6348,
      "çĽ´å¾Ħ": 6349,
      "è¯ģæį®": 6350,
      "ç§įç±»": 6351,
      "åİ»å¾Ģ": 6352,
      "ç»¼åĲĪ": 6353,
      "å¾ĹçŁ¥": 6354,
      "çİĭæ¢ĵåįļ": 6355,
      "\"ï¼Į": 6356,
      "ä¸Ģç¾¤": 6357,
      "åīĬ": 6358,
      "éĵł": 6359,
      "éģĩåĪ°äºĨ": 6360,
      "çĲĽ": 6361,
      "äºĨå¾Īå¤ļ": 6362,
      "è¯¸ä½į": 6363,
      "\",": 6364,
      "æĺ¯ä¸ŃåĽ½": 6365,
      "åı¯ä»¥èĢĥèĻĳ": 6366,
      "ç¥Ĥ": 6367,
      "æĢİä¹Īåģļ": 6368,
      "ç¬¦æĸĩ": 6369,
      "çĭ¡": 6370,
      "éļĻ": 6371,
      "èĦ¾": 6372,
      "çŀİ": 6373,
      "éĶħä¸Ń": 6374,
      "ä¹Ļ": 6375,
      "æĽ´æľī": 6376,
      "ä¸īç§į": 6377,
      "æĿĥéĻĲ": 6378,
      "ä¸įåģľ": 6379,
      "éĤ£ä¹Īå¤ļ": 6380,
      "éŀĺ": 6381,
      "åİ»çļĦ": 6382,
      "çĳŀè´Ŀ": 6383,
      "åı¨": 6384,
      "æķ¦": 6385,
      "èĦĬ": 6386,
      "ä¸įå®¹æĺĵ": 6387,
      "çľ¼åīįçļĦ": 6388,
      "èªĵ": 6389,
      "æĮª": 6390,
      "æ·ĩ": 6391,
      "èĹ¤": 6392,
      "è¿½æĿĢ": 6393,
      "ĠÂ·Â·Â·Â·Â·Â·": 6394,
      "åīª": 6395,
      "ç¬¬åĽĽ": 6396,
      "æİ¨åĬ¨": 6397,
      "å·®è·Ŀ": 6398,
      "ä¹ĺä»¥": 6399,
      "22": 6400,
      "äººå·¥æĻºèĥ½çļĦ": 6401,
      "æľīæĹ¶åĢĻ": 6402,
      "æ·Į": 6403,
      "åħģ": 6404,
      "æĪĳçİ°åľ¨": 6405,
      "åĳ¨æľ«": 6406,
      "æľ¬äºĭ": 6407,
      "çĳŀè´Ŀåį¡": 6408,
      "è¿¦": 6409,
      "ä½ĵåĬĽ": 6410,
      "éħįæĸĻ": 6411,
      "åĸī": 6412,
      "å·²ç»ıæĺ¯": 6413,
      "åĮĹæĸĹ": 6414,
      "åľĨå½¢": 6415,
      "åıĸåĨ³": 6416,
      "åĨ°æ·ĩ": 6417,
      "å¥½åĲ§": 6418,
      "Â²": 6419,
      "åľ¨æĪĳ": 6420,
      "çľĭå¾Ĺ": 6421,
      "æ³ķåĬĽ": 6422,
      "å¸¸å¸¸": 6423,
      "çĻ¾ä¸ĩ": 6424,
      "è§ĴèĲ½": 6425,
      "è¿Ļä¸ĢåĪĩ": 6426,
      "ç¼ĵè§£": 6427,
      "Ġé»ĳ": 6428,
      "åľ¨æµ·": 6429,
      "ä¸ºä¸»": 6430,
      "ä¹Łå¥½": 6431,
      "èĹ©": 6432,
      "æĬķå½±": 6433,
      "éĢĤéĩıçļĦ": 6434,
      "åıĸåĨ³äºİ": 6435,
      "ï¼ģï¼ģâĢĿ": 6436,
      "æĺŁæĺŁ": 6437,
      "èĭıæ²Ĳæ©Ļ": 6438,
      "æĸ©æĿĢ": 6439,
      "è½¨éģĵ": 6440,
      "ä¸¤åıª": 6441,
      "åĭĩæķ¢": 6442,
      "åĨ°æ·ĩæ·ĭ": 6443,
      "ä½Ĩè¿Ļ": 6444,
      "çªĹæĪ·": 6445,
      "ä¸Ģå¤´": 6446,
      "æĢ»çļĦ": 6447,
      "æŁ¥æī¾": 6448,
      "ä¸ĢäºĽåħ³äºİ": 6449,
      "èħ»": 6450,
      "åħħåĪĨ": 6451,
      "Ġne": 6452,
      "æĭ¼åĨĻ": 6453,
      "æĪĳæĹłæ³ķ": 6454,
      "ä¹Łè¢«": 6455,
      "åĬłéĢŁ": 6456,
      "åĲįè¨Ģ": 6457,
      "çĽ¸åºĶçļĦ": 6458,
      "è§ģéĿ¢": 6459,
      "åģļå¥½": 6460,
      "Ġèµµ": 6461,
      "ä¹ĭæĹ¶": 6462,
      "è´ª": 6463,
      "é«ĺæķĪ": 6464,
      "åĿĬ": 6465,
      "å¦Ĥæŀľæĺ¯": 6466,
      "ä¼łè¾¾": 6467,
      "æ²³æµģ": 6468,
      "éŃĦä¹ĭåĬĽ": 6469,
      "æĪĳæİ¨èįĲ": 6470,
      "å¸ĺ": 6471,
      "è§£çŃĶ": 6472,
      "Ġal": 6473,
      "35": 6474,
      "æīĭéĩĮ": 6475,
      "ä¸Ģé¡¿": 6476,
      "æĦıçļĦ": 6477,
      "åĨ²çªģ": 6478,
      "æ¶īåıĬåĪ°": 6479,
      "å¤§é£İ": 6480,
      "èº«æĿĲ": 6481,
      "çŃĭ": 6482,
      "å¦Ĩ": 6483,
      "æĽ³": 6484,
      "çļĦéŁ³ä¹Ĳ": 6485,
      "å¤§åĨĽ": 6486,
      "åĩłåĲį": 6487,
      "Ġå¼łæ¶Ľ": 6488,
      "Th": 6489,
      "hn": 6490,
      "æĸ§": 6491,
      "è¿Ļä¸ªä¸ĸçķĮ": 6492,
      "æį®è¯´": 6493,
      "æ³¨æĦıåĬĽ": 6494,
      "åħ¬ä¸»": 6495,
      "è§ĤçļĦ": 6496,
      "è´¢åĬ¡": 6497,
      "æŁ´": 6498,
      "ä¸ĵéĹ¨": 6499,
      "åı¹æģ¯": 6500,
      "ç§Ģæīį": 6501,
      "æīŃæĽ²": 6502,
      "åĵİ": 6503,
      "æİ¢éĻ©": 6504,
      "æĹĭå¾ĭ": 6505,
      "å°ıé±¼åĦ¿": 6506,
      "æĦŁåı¹": 6507,
      "æĦıæĢĿæĺ¯": 6508,
      "èĨĽ": 6509,
      "æĤĶ": 6510,
      "ä½¿å¾Ĵ": 6511,
      "çĥŃçļĦ": 6512,
      "åİĨåı²ä¸Ĭ": 6513,
      "åī©ä¸ĭçļĦ": 6514,
      "ight": 6515,
      "åı¯çĪ±": 6516,
      "é»¯": 6517,
      "éĻ¢éķ¿": 6518,
      "åİĭåĪ¶": 6519,
      "ç¤ºä¾ĭ": 6520,
      "ĠçļĦ": 6521,
      "çĶŁæľº": 6522,
      "åŃ¦ä¼ļ": 6523,
      "æĺŁç©º": 6524,
      "ä¸ĸåŃĲ": 6525,
      "æ¯įäº²": 6526,
      "çŃĶæ¡Īæĺ¯": 6527,
      "è§Ĩè§Ĵ": 6528,
      "èĭĹ": 6529,
      "åĺ²": 6530,
      "åĿĲæłĩ": 6531,
      "ç¬¦ç®ĵ": 6532,
      "åºĩæĬ¤": 6533,
      "ä¸ĭå·´": 6534,
      "ä¸ĭéĽ¨": 6535,
      "å»ºéĢł": 6536,
      "å¨ģåĬĽ": 6537,
      "æī©æķ£": 6538,
      "è´¸": 6539,
      "éķ¿æĹ¶éĹ´": 6540,
      "è¾¹å¢ĥ": 6541,
      "äº¤æīĭ": 6542,
      "åĬŀåħ¬å®¤": 6543,
      "ä¸įç¦ģ": 6544,
      "çļĩèĢħ": 6545,
      "Ġch": 6546,
      "Ġme": 6547,
      "ç¥ŀæĥħ": 6548,
      "çĿ¡è§ī": 6549,
      "ä»ĳ": 6550,
      "å¯Łè§īåĪ°": 6551,
      "è¢«æīĵ": 6552,
      "èĥ¡æ¤Ĵ": 6553,
      "éĤ£å®¶ä¼Ļ": 6554,
      "ä½ĵèĤ²": 6555,
      "é¦Ī": 6556,
      "æ£µ": 6557,
      "èĭ±åĽ½": 6558,
      "å¿µå¤´": 6559,
      "è®¤ä¸ºæĺ¯": 6560,
      "ç¾¡éĺ³": 6561,
      "è·»èº«": 6562,
      "æĶ¶åĪ°": 6563,
      "æĶ¶éĽĨ": 6564,
      "åįļçī©é¦Ĩ": 6565,
      "ä¸Ģåīĳ": 6566,
      "ä¸įæ¸ħ": 6567,
      "æ¡ĳ": 6568,
      "è¡ĢèĤī": 6569,
      "è¯Ĺè¯Ĺ": 6570,
      "å§ľå°ļçľŁ": 6571,
      "æķ°åĢ¼": 6572,
      "çĭĹçļĦ": 6573,
      "è§£åĨ³æĸ¹æ¡Ī": 6574,
      "ç»ĥæ°Ķå£«": 6575,
      "æĭ³å¤´": 6576,
      "çİ«": 6577,
      "ç¦Ħ": 6578,
      "éŃıçĲĽ": 6579,
      "æĢ§è´¨": 6580,
      "éĩįçĤ¹": 6581,
      "æ¡Ĩ": 6582,
      "çļĦä¸Ģéĥ¨åĪĨ": 6583,
      "åħ¹": 6584,
      "è¦ģä¹Ī": 6585,
      "çī¹å®ļçļĦ": 6586,
      "è§ģäºĨ": 6587,
      "Ġ15": 6588,
      "åĩŃåĢŁ": 6589,
      "å¤§éĹ¨": 6590,
      "ä½łçŁ¥éģĵ": 6591,
      "çĭ¸": 6592,
      "å¼ºè¡Į": 6593,
      "éĥ¨éķ¿": 6594,
      "æ¸ħæĸ°": 6595,
      "ç¿©": 6596,
      "è¶ħa": 6597,
      "å¸ķ": 6598,
      "å¤§å¸Ī": 6599,
      "éĩįè§Ĩ": 6600,
      "å¼ºçĥĪçļĦ": 6601,
      "å¼łæ¶Ľ": 6602,
      "æĳĩæĳĩå¤´": 6603,
      "æ¼Ķè®²": 6604,
      "çīĩåĪ»åĲİ": 6605,
      "ç§¯æŀģçļĦ": 6606,
      "è¿Ļä»¶": 6607,
      "æķĻåłĤ": 6608,
      "ere": 6609,
      "éĨĭ": 6610,
      "äººäºĨ": 6611,
      "æŃª": 6612,
      "åĽ¾åĥı": 6613,
      "åįĥå¹´": 6614,
      "åı°ä¸Ĭ": 6615,
      "äº§åĵģçļĦ": 6616,
      "éĴī": 6617,
      "æĩµ": 6618,
      "åıªæľīä¸Ģ": 6619,
      "Ġit": 6620,
      "æĪĲç»©": 6621,
      "æĮĩä»¤": 6622,
      "æ¸©é¦¨": 6623,
      "ence": 6624,
      "äºĴèģĶç½ĳ": 6625,
      "éĵ¶è¡Į": 6626,
      "è¯±": 6627,
      "æĿ¥è®¡ç®Ĺ": 6628,
      "ä¹Łæĺ¯ä¸Ģ": 6629,
      "ä¸»æĦı": 6630,
      "æ¦Ħ": 6631,
      "ä¸ĸéĹ´": 6632,
      "åĻľ": 6633,
      "åı³æīĭ": 6634,
      "æŁĶè½¯": 6635,
      "éĢĤå½ĵçļĦ": 6636,
      "Ħæ¦Ħ": 6637,
      "æīĢåľ¨çļĦ": 6638,
      "äºĨçľ¼": 6639,
      "è¯Ŀè¯´": 6640,
      "å¤±åİ»äºĨ": 6641,
      "ä¹ĭéĹ´çļĦåħ³ç³»": 6642,
      "æ©Ħæ¦Ħ": 6643,
      "æĺ¯ä»İ": 6644,
      "åħ³å¿ĥ": 6645,
      "ç±³ç²Ĵ": 6646,
      "åĶ¯æľī": 6647,
      "æĥķ": 6648,
      "æııè¿°ä¸Ģä¸ĭ": 6649,
      "æĪĳä»¬åºĶè¯¥": 6650,
      "è½¬ç§»": 6651,
      "Ġ100": 6652,
      "çĹķè¿¹": 6653,
      "å¨Ł": 6654,
      "ä¸įæĽ¾": 6655,
      "ä¿ĿçķĻ": 6656,
      "æł¼å¤ĸ": 6657,
      "æĻºåĬĽ": 6658,
      "èµ«èĴĤ": 6659,
      "ä¾µèļĢ": 6660,
      "åı¯è§ģ": 6661,
      "ç²¾å½©": 6662,
      "å±ĢåĬ¿": 6663,
      "çŁĽçĽ¾": 6664,
      "éĿ¢ç²ī": 6665,
      "åĬĽåŃ¦": 6666,
      "éĴ¦": 6667,
      "åįķæīĭ": 6668,
      "çĶµæ±ł": 6669,
      "çļĦäººçī©": 6670,
      "è½»æĺĵ": 6671,
      "æĶ¶æĭ¾": 6672,
      "å°½åĬĽ": 6673,
      "å°ıå§ĳå¨ĺ": 6674,
      "out": 6675,
      "åºıåĪĹ": 6676,
      "çĦ¦èĻĳ": 6677,
      "Ġä¹ĭåīį": 6678,
      "éĥ¨éĹ¨": 6679,
      "è¿ĺæľīåħ¶ä»ĸ": 6680,
      "èĨĬ": 6681,
      "´èĿ¶": 6682,
      "å°±è¡Į": 6683,
      "èĿ´èĿ¶": 6684,
      "urn": 6685,
      "ĠçĦ¶åĲİ": 6686,
      "è·Łéļı": 6687,
      "æĳĩå¤´éģĵ": 6688,
      "èĮħ": 6689,
      "èģĶåĲĪ": 6690,
      "éª¤çĦ¶": 6691,
      "Ġç»ĵæŀľ": 6692,
      "éħ·": 6693,
      "åŃĺåľ¨çļĦ": 6694,
      "çľĭäºĨçľĭ": 6695,
      "åıī": 6696,
      "åĲ«æľī": 6697,
      "çİ«çĳ°": 6698,
      "æļ´éľ²": 6699,
      "é¢ĳéģĵ": 6700,
      "èİ·å¾ĹäºĨ": 6701,
      "å¤§èĩªçĦ¶çļĦ": 6702,
      "çĽİ": 6703,
      "é¸Łç±»": 6704,
      "æĵįæİ§": 6705,
      "å¤§åİħ": 6706,
      "ä¸ĭæ¬¡": 6707,
      "æİĢ": 6708,
      "è¿ĽæĶ»": 6709,
      "æ°Ķä½ĵ": 6710,
      "çģ¿": 6711,
      "çİ©åħ·": 6712,
      "ä½Ĩä¹Ł": 6713,
      "çľ¨çľ¼": 6714,
      "ç»½æĶ¾": 6715,
      "23": 6716,
      "äºĨè¿ĩæĿ¥": 6717,
      "ä¸ĬéĻĲ": 6718,
      "æį§": 6719,
      "å¡ĳæĸĻ": 6720,
      "åĴĭ": 6721,
      "è¢«ä»ĸ": 6722,
      "åĮĸä½ľ": 6723,
      "ï¼ĮãĢĮ": 6724,
      "åľ¨åĵªéĩĮ": 6725,
      "çķĶ": 6726,
      "å®ĪæĬ¤": 6727,
      "å·¨äºº": 6728,
      "ä»ĺåĩº": 6729,
      "èŃ¦æĥķ": 6730,
      "èĮ«çĦ¶": 6731,
      "èĢĲå¿ĥ": 6732,
      "åĪ¹": 6733,
      "æĦķ": 6734,
      "èĩ³å¼º": 6735,
      "åŁºåľ°": 6736,
      "éĶĢåĶ®é¢Ŀ": 6737,
      "åºĨç¥Ŀ": 6738,
      "å¤§èĩªçĦ¶": 6739,
      "èĢģå¤§": 6740,
      "ä»İå°ı": 6741,
      "å·¾": 6742,
      "ä¸»è¯Ń": 6743,
      "çŁ³å¤´": 6744,
      "ä¹ĸ": 6745,
      "ç®ĹäºĨ": 6746,
      "æľĪçļĦ": 6747,
      "ä¾Ľå¥ī": 6748,
      "çļĦè¯Ŀé¢ĺ": 6749,
      "åĸĺ": 6750,
      "å°½å¿«": 6751,
      "ĠèĭįçĮ«": 6752,
      "åħĳ": 6753,
      "å¥İ": 6754,
      "ä¾£": 6755,
      "Ġpro": 6756,
      "æ·±åº¦åŃ¦ä¹ł": 6757,
      "å¤§ç¬ĳ": 6758,
      "å·²ç»ıåľ¨": 6759,
      "é¢Ĩå¯¼": 6760,
      "str": 6761,
      "è¯´åĩº": 6762,
      "æıĲåĪ°äºĨ": 6763,
      "æİ¥è¿ŀ": 6764,
      "çº¿çļĦ": 6765,
      "åĪļå¥½": 6766,
      "å¥¶éħª": 6767,
      "æ¡ĮåŃĲ": 6768,
      "è¹Ī": 6769,
      "Ġç»Ļå®ļä¸Ģä¸ª": 6770,
      "æľīæľºä¼ļ": 6771,
      "å°ĨæĿ¥": 6772,
      "çĮ´": 6773,
      "åĴ¬çīĻ": 6774,
      "åĿ¤": 6775,
      "å¼ºçĥĪ": 6776,
      "æľīä»»ä½ķ": 6777,
      "å¤ĸçķĮ": 6778,
      "ä¹°åįĸ": 6779,
      "åºĶçĶ¨äºİ": 6780,
      "å¹³åĿĩåĢ¼": 6781,
      "èĩªè¡Įè½¦": 6782,
      "Ġå¥½": 6783,
      "åĪĹä¸¾": 6784,
      "è¾£æ¤Ĵ": 6785,
      "ĠåĨį": 6786,
      "æ²¾": 6787,
      "ç½ķ": 6788,
      "è§¦åıĳ": 6789,
      "åºŀå¤§çļĦ": 6790,
      "è¯§": 6791,
      "åĴĮå¹³": 6792,
      "éĤ£ä½łèĥ½": 6793,
      "èĬĤæĹ¥": 6794,
      "æ¶Īæķ£": 6795,
      "çĿ¡çľł": 6796,
      "åľ¨éĤ£éĩĮ": 6797,
      "å®ĥåı¯ä»¥": 6798,
      "çĲĨæĥ³": 6799,
      "æĺŁçļĦ": 6800,
      "éļıæīĭ": 6801,
      "ç¢Į": 6802,
      "å°±è¿Ļæł·": 6803,
      "æĸĩåºĻ": 6804,
      "åŁİåĨħ": 6805,
      "åĳ¨éķ¿": 6806,
      "çļĦå¼Ģ": 6807,
      "ä¸įæĢķ": 6808,
      "åŁİåł¡": 6809,
      "éĺŁåıĭ": 6810,
      "ä¼ĺæĥł": 6811,
      "ello": 6812,
      "æ¸Ĺ": 6813,
      "æ¡Ĥ": 6814,
      "æĶ¯æĴĳ": 6815,
      "éªĳåħµ": 6816,
      "48": 6817,
      "æĪĳåĴĮ": 6818,
      "åŀĭçļĦ": 6819,
      "æĹıçļĦ": 6820,
      "ç¦ıåľ°": 6821,
      "29": 6822,
      "åİĮ": 6823,
      "æĸ¹éĶĲ": 6824,
      "æįŀ": 6825,
      "äºĨä¸Ģä¼ļ": 6826,
      "æĮĩåĩº": 6827,
      "åĽĽåįģ": 6828,
      "å±Ĥæ¬¡": 6829,
      "åħģè®¸": 6830,
      "åľ¨ä¸Ģ": 6831,
      "éĢĹ": 6832,
      "æ²ĥ": 6833,
      "ä¼ĺçĤ¹": 6834,
      "èĢ³æľµ": 6835,
      "æķıæį·": 6836,
      "ä¼łæĴŃ": 6837,
      "Ġè¿Ļç§į": 6838,
      "éĹªèĢĢ": 6839,
      "ãĢĤâĢĻ": 6840,
      "è¿ĻåĦ¿": 6841,
      "è°Ĳ": 6842,
      "åĩłå¹´": 6843,
      "çªĿ": 6844,
      "å¼Ģåı£éģĵ": 6845,
      "ä¸ĭéĻį": 6846,
      "è¦ģåİ»": 6847,
      "çİ©å®¶ä»¬": 6848,
      "å¹¸åŃĺèĢħ": 6849,
      "æĢĿè·¯": 6850,
      "èĵĦ": 6851,
      "å°ıå§Ĳ": 6852,
      "åıĳåĬ¨": 6853,
      "è¿Ĳè½¬": 6854,
      "ä¸īè§Ĵå½¢": 6855,
      "è¿ĩæĿ¥çļĦ": 6856,
      "op": 6857,
      "äºĨåįĬ": 6858,
      "è½¬åĮĸä¸º": 6859,
      "æī¾åĩº": 6860,
      "éļıåı£": 6861,
      "åħĭçļĦ": 6862,
      "çľŁçĽ¸": 6863,
      "åģ·åģ·": 6864,
      "åľ¨è¿Ļç§į": 6865,
      "å®¶ä¸Ń": 6866,
      "ä»£åħ¥": 6867,
      "è¥¿çĵľ": 6868,
      "å¸¦ä¸Ĭ": 6869,
      "çľŁäºº": 6870,
      "è£Ķ": 6871,
      "é£ŁçĶ¨": 6872,
      "ç¯®çĲĥ": 6873,
      "å¤ªå¹³": 6874,
      "äº¤ç»Ļ": 6875,
      "è¯ķæİ¢": 6876,
      "åĬ©æīĭ": 6877,
      "éĹ°": 6878,
      "å±ĤçļĦ": 6879,
      "åľŁè±Ĩ": 6880,
      "å§¨": 6881,
      "ä¸¤æ¬¡": 6882,
      "éĩİåħ½": 6883,
      "å®ŀåľ¨æĺ¯": 6884,
      "ohn": 6885,
      "åħľ": 6886,
      "ç»ĵæĻ¶": 6887,
      "æĺİæĺİ": 6888,
      "æ´ŀå¤©": 6889,
      "åĻ©æ¢¦": 6890,
      "æ¸©æŁĶ": 6891,
      "æĳĦæ°ıåº¦": 6892,
      "æ¡Ĳåı¶æ´²": 6893,
      "å°ĨéĤ£": 6894,
      "æ¯ıä¸Ģ": 6895,
      "æľĽåİ»": 6896,
      "ç¤ºæĦı": 6897,
      "ext": 6898,
      "æĪĺæľ¯": 6899,
      "åıĪä¸įæĺ¯": 6900,
      "å¹ħåº¦": 6901,
      "åĺĢ": 6902,
      "ç¼ĸè¾ĳ": 6903,
      "æĳĨæīĭ": 6904,
      "ä»¥ä¸ĬçļĦ": 6905,
      "ä½łæĢİä¹Ī": 6906,
      "è®©å®ĥ": 6907,
      "è¯ĿéŁ³": 6908,
      "ç¬ĳæĦı": 6909,
      "åıįä¹īè¯į": 6910,
      "çº¿ç´¢": 6911,
      "çļĦåİĨåı²": 6912,
      "èµ°çļĦ": 6913,
      "Ġwh": 6914,
      "çĭĲçĭ¸": 6915,
      "èĬ±æľµ": 6916,
      "åĨ·éĿĻ": 6917,
      "å¥¶æ²¹": 6918,
      "Ġint": 6919,
      "åľºåĲĪ": 6920,
      "ä¹¦çĶŁ": 6921,
      "å²Ĺ": 6922,
      "åıĮçľ¼": 6923,
      "æııåĨĻ": 6924,
      "ä¸ĢèĪ¬çļĦ": 6925,
      "ä¸ŃæĢ§": 6926,
      "èĩŃ": 6927,
      "æĭ±": 6928,
      "åĮł": 6929,
      "èģĤ": 6930,
      "å¸¦æľī": 6931,
      "æ¿ĢåĬ¨": 6932,
      "åĭīå¼º": 6933,
      "æķ°åįģ": 6934,
      "è¥¿åįĹ": 6935,
      "æŀģç«¯": 6936,
      "èĸª": 6937,
      "æ°§æ°Ķ": 6938,
      "ĠâĢĺ": 6939,
      "ç»ĦæĪĲçļĦ": 6940,
      "é¤Ĳé¦Ĩ": 6941,
      "å®Ĺä¸»": 6942,
      "ä¸įæĸŃåľ°": 6943,
      "å¯ĤéĿĻ": 6944,
      "150": 6945,
      "åħ¥åı£": 6946,
      "åĥ§": 6947,
      "ang": 6948,
      "èĶ½": 6949,
      "æ°ĶåĬ¿": 6950,
      "é¾Ł": 6951,
      "åĴĮçļĦ": 6952,
      "Ġå®ĭ": 6953,
      "æľīéĻĲ": 6954,
      "çģĮ": 6955,
      "ä½ĵéĩį": 6956,
      "åįĩèµ·": 6957,
      "æĮĩçļĦæĺ¯": 6958,
      "ï¼īãĢĤãĢĳ": 6959,
      "èĳ«": 6960,
      "ä»Ļå®¶": 6961,
      "ä¸Ģåħ±": 6962,
      "æķ£åıĳ": 6963,
      "åľ£åħī": 6964,
      "åİ¨æĪ¿": 6965,
      "åº¦åĴĮ": 6966,
      "æŃ»å¯Ĥ": 6967,
      "ä»¥å¾Ģ": 6968,
      "åıĭè°Ĭ": 6969,
      "ä¸įçĶ±": 6970,
      "æĪĳä¸ºæĤ¨": 6971,
      "ä¸¤ä¾§": 6972,
      "è·ĳæŃ¥": 6973,
      "ä¸Ģä¸ªå°ı": 6974,
      "èĭ±å°º": 6975,
      "æ½ĺ": 6976,
      "çŀ³åŃĶ": 6977,
      "èĤº": 6978,
      "åħ³éĹŃ": 6979,
      "éĩįéĩį": 6980,
      "æĮ£æīİ": 6981,
      "è¿Ļä¹Ł": 6982,
      "çī©èµĦ": 6983,
      "ana": 6984,
      "äºĴåĬ¨": 6985,
      "æī¿è®¤": 6986,
      "èµ´": 6987,
      "å¦¨": 6988,
      "ä½ķæĹ¶": 6989,
      "æĶ¿çŃĸ": 6990,
      "åĪĨåĪ«æĺ¯": 6991,
      "çļĦåħ³éĶ®": 6992,
      "æĶ¶èµ·": 6993,
      "åĪĢæľ¯": 6994,
      "æĪ¿å±ĭ": 6995,
      "å®ĺåĳĺ": 6996,
      "ous": 6997,
      "èī°éļ¾": 6998,
      "æ±¹": 6999,
      "ç¯·": 7000,
      "çĵ£": 7001,
      "Ġé©¬": 7002,
      "åĳľ": 7003,
      "éĥ½å¿«": 7004,
      "æĥ³åĪ°äºĨ": 7005,
      "åıĳæĺİ": 7006,
      "æĦŁåºĶ": 7007,
      "éĹ»è¨Ģ": 7008,
      "äº§çĶŁäºĨ": 7009,
      "è§īéĨĴ": 7010,
      "çĭłçĭł": 7011,
      "æĪĳä»¬å°Ĩ": 7012,
      "çļĦçľĭçĿĢ": 7013,
      "è¿ĺç®Ĺ": 7014,
      "æĸ¯çļĦ": 7015,
      "åīįè¿Ľ": 7016,
      "æŃ¦å¤§": 7017,
      "å°Ķå¾·": 7018,
      "æ»¤": 7019,
      "æ®ĸ": 7020,
      "è¿Ĳç®Ĺ": 7021,
      "åħŃåĵģ": 7022,
      "èģļä¼ļ": 7023,
      "åĨ¥æĥ³": 7024,
      "å¬": 7025,
      "Ġæ²¡": 7026,
      "ä¸ĢéĿ¢": 7027,
      "åľ¨ç©ºä¸Ń": 7028,
      "åĪ©æ¶¦": 7029,
      "æİ¨æĸŃ": 7030,
      "åĸĥåĸĥ": 7031,
      "ä¸¤åĲį": 7032,
      "å®³æĢķ": 7033,
      "ä½ľæĪĺ": 7034,
      "ï¼īãĢģ": 7035,
      "ä¼¤åĬ¿": 7036,
      "Ġè§£éĩĬ": 7037,
      "ç©´": 7038,
      "åĽŀå¤į": 7039,
      "è·Łä½ł": 7040,
      "çļĦæľĢ": 7041,
      "çļĦçĻ½": 7042,
      "åĿĲéķĩ": 7043,
      "éĥ½ä¸įä¼ļ": 7044,
      "æŃ¦æľĿ": 7045,
      "è¡Įçľģ": 7046,
      "åĨįæĿ¥": 7047,
      "æ²Ļæ¼ł": 7048,
      "èĪ°éĺŁ": 7049,
      "ç»ĳ": 7050,
      "å¤©ä¸ĭçļĦ": 7051,
      "è§Ĥçľĭ": 7052,
      "orld": 7053,
      "åıªæĺ¯ä¸Ģ": 7054,
      "åĿ¡": 7055,
      "æ¯Ķå¦Ĥè¯´": 7056,
      "æĲħæĭĮåĿĩåĮĢ": 7057,
      "åĴĮæĸĩåĮĸ": 7058,
      "ä¹ĭæłĳ": 7059,
      "è¯´å¾Ĺ": 7060,
      "çħ§é¡¾": 7061,
      "å®ĮæĪĲäºĨ": 7062,
      "ä¸įåĥı": 7063,
      "æĹłçĸĳ": 7064,
      "å¤ªå¤§": 7065,
      "input": 7066,
      "åĪĿå§ĭ": 7067,
      "å¾Īå¿«å°±": 7068,
      "çļĦä»»åĬ¡": 7069,
      "çļĦè¿ĩç¨ĭ": 7070,
      "çĸı": 7071,
      "çĻ¾èĬ±": 7072,
      "ç»ĿæľĽ": 7073,
      "æĨĭ": 7074,
      "æĢ»çļĦæĿ¥è¯´": 7075,
      "çļĦéĹ¨": 7076,
      "çĥĽ": 7077,
      "æīĵå¾Ĺ": 7078,
      "éĢĶä¸Ń": 7079,
      "Ġor": 7080,
      "çļĦæĥ³æ³ķ": 7081,
      "æľ¬ä¸ĸçķĮ": 7082,
      "åļ¼": 7083,
      "é»ĳæĺŁåĨĽåĽ¢": 7084,
      "è¿ĺå¥½": 7085,
      "è¾¹è¯Ĺè¯Ĺ": 7086,
      "æľĪäº®": 7087,
      "å´ĸ": 7088,
      "èĲ½åı¶": 7089,
      "ä¼łæī¿": 7090,
      "åĪ¤å®ļ": 7091,
      "pt": 7092,
      "æľīæĹ¶": 7093,
      "éĹ¯": 7094,
      "ä¸ĭå¤´": 7095,
      "åĦ¿ç«¥": 7096,
      "æĺ¯ä½ł": 7097,
      "éĴĵ": 7098,
      "åĩĿèģļ": 7099,
      "åĪĨéĴŁåĲİ": 7100,
      "å¤§çīĩ": 7101,
      "ine": 7102,
      "ä¸ĢæĦ£": 7103,
      "äºĭçī©": 7104,
      "è·µ": 7105,
      "æĺİåªļ": 7106,
      "åĬłçĥŃ": 7107,
      "æľĪåħī": 7108,
      "åħħè¶³": 7109,
      "å¤§èĩ´": 7110,
      "éĤ£äºº": 7111,
      "èĬ±è´¹": 7112,
      "æĢ»ç»Ł": 7113,
      "ç¼ºçĤ¹": 7114,
      "çİ©æĦıåĦ¿": 7115,
      "ä½¬": 7116,
      "å¼§": 7117,
      "ä»ĸè¿ĺ": 7118,
      "åĲĮåŃ¦": 7119,
      "ä¸īåĵģ": 7120,
      "æĸ½å±ķ": 7121,
      "åį±æľº": 7122,
      "ĠéļıçĿĢ": 7123,
      "åīįéĿ¢": 7124,
      "å¹´ä»½": 7125,
      "æľ¬æ¬¡": 7126,
      "åı£åı·": 7127,
      "Ġpl": 7128,
      "æĪ¿éĹ´éĩĮ": 7129,
      "åĤ¨åŃĺ": 7130,
      "å®īè£ħ": 7131,
      "ä»ĬæĻļ": 7132,
      "ĠæĪĺ": 7133,
      "çľ·": 7134,
      "çģ«è½¦": 7135,
      "äºīå¤º": 7136,
      "Ġ30": 7137,
      "çıįæĥľ": 7138,
      "ä¹ĭåĨħ": 7139,
      "å½ĵåľº": 7140,
      "èĥİ": 7141,
      "åĤ¬": 7142,
      "ook": 7143,
      "å®ŀçļĦ": 7144,
      "ç¾ŀ": 7145,
      "è¾ħåĬ©": 7146,
      "åľ¨ä»ĸçļĦ": 7147,
      "åİŁç½ª": 7148,
      "400": 7149,
      "æľ¬åĳ½": 7150,
      "Ġ---": 7151,
      "å¾Īå°ĳ": 7152,
      "æ£ķ": 7153,
      "å±ģèĤ¡": 7154,
      "ç®ĢçŁŃçļĦ": 7155,
      "ä¸Ģæŀļ": 7156,
      "èµł": 7157,
      "ç¿ĺ": 7158,
      "æĺ¥å¤©çļĦ": 7159,
      "æĬĳ": 7160,
      "å¹¶ç»Ļåĩº": 7161,
      "æķ´ä¸ªäºº": 7162,
      "ome": 7163,
      "çĨĬçĮ«": 7164,
      "Ġç½Ĺ": 7165,
      "ĺèĽĽ": 7166,
      "çĶŁæ°Ķ": 7167,
      "çİ°èº«": 7168,
      "èľĺèĽĽ": 7169,
      "çĮĽåľ°": 7170,
      "éľ¸åĽ¾": 7171,
      "é¼»åŃĲ": 7172,
      "äºĨäºĽ": 7173,
      "èĩªè¯Ń": 7174,
      "çĹ´": 7175,
      "èĦ±ç¦»": 7176,
      "Ġè¢«": 7177,
      "èĢĮåİ»": 7178,
      "èħķ": 7179,
      "åĩĨç¡®çļĦ": 7180,
      "èĩªä¸»": 7181,
      "å¹¶æıĲä¾Ľ": 7182,
      "æĩĴå¾Ĺ": 7183,
      "ä¸įä½Ĩ": 7184,
      "çļĦåĲİ": 7185,
      "çļĦæĬĢæľ¯": 7186,
      "çļĦå¹´è½»": 7187,
      "åĪ°æĿ¥": 7188,
      "éģŃéģĩ": 7189,
      "æŀ¢": 7190,
      "æĵİ": 7191,
      "çģ¯åħī": 7192,
      "è¥¿çıŃçīĻè¯Ń": 7193,
      "åĩºäºĨä¸Ģ": 7194,
      "åī¥": 7195,
      "çŃĽ": 7196,
      "èĥ³": 7197,
      "å¤ľå¹ķ": 7198,
      "è¿Ļä¹Īè¯´": 7199,
      "æļĹä¸Ń": 7200,
      "åĨ·åį´": 7201,
      "ä½£åħµ": 7202,
      "ä¸ĳ": 7203,
      "æ¸¸åİĨ": 7204,
      "æĻļé¤Ĳ": 7205,
      "ä½ľä¸ºä¸Ģä¸ª": 7206,
      "Ġï¼Ī": 7207,
      "æĪĳçľĭ": 7208,
      "æĺ¯ä¸Ģéĥ¨": 7209,
      "å¿ĥä¸ŃçļĦ": 7210,
      "æĺŁç³»": 7211,
      "ä¼ļéķ¿": 7212,
      "éªģ": 7213,
      "åĺŁ": 7214,
      "çĿģå¼Ģ": 7215,
      "èĮĥåĽ´åĨħ": 7216,
      "å§¿åĬ¿": 7217,
      "åħĨ": 7218,
      "åıĺç§į": 7219,
      "æĤ²ä¼¤": 7220,
      "ĠY": 7221,
      "è¦ģä¸įçĦ¶": 7222,
      "åį«çĶŁ": 7223,
      "åĳĪçİ°åĩº": 7224,
      "Ġthat": 7225,
      "27": 7226,
      "Ġçł°": 7227,
      "çļĦé»ĳ": 7228,
      "çļĦæł·åŃĲ": 7229,
      "äººæ°ĳ": 7230,
      "åįĴ": 7231,
      "åıĻ": 7232,
      "æŁ¿": 7233,
      "è§Ħå®ļ": 7234,
      "æĲģ": 7235,
      "åĬŁå¤«": 7236,
      "æį¢æĪĲ": 7237,
      "....": 7238,
      "ç«ŀæĬĢ": 7239,
      "å¼ĢéĹ¨": 7240,
      "è¿ľæĸ¹": 7241,
      "ä½¿çĶ¨äºĨ": 7242,
      "çģ¾å®³": 7243,
      "è¯»ä¹¦äºº": 7244,
      "Ġçº¢": 7245,
      "æīĵäºĨä¸ª": 7246,
      "æ¸ħåĩī": 7247,
      "å®Īå¤ľ": 7248,
      "çļĦé¦ĸ": 7249,
      "çļĦçľ¼çĿĽ": 7250,
      "æŃĩ": 7251,
      "ç¬¬äºĶ": 7252,
      "èĨľ": 7253,
      "å°¼å°Ķ": 7254,
      "æ¼Ĥæµ®": 7255,
      "èĥ³èĨĬ": 7256,
      "å¦ĸåħ½": 7257,
      "Ġå¦Ĥä»Ĭ": 7258,
      "ĠæĽ¹": 7259,
      "ä½İå£°": 7260,
      "çĨĶ": 7261,
      "ç¼ĵæħ¢": 7262,
      "ä¹ĲåĽŃå¸ģ": 7263,
      "çĶľçĤ¹": 7264,
      "Ġ#": 7265,
      "å¯¹ä½ł": 7266,
      "åįĹæĸ¹": 7267,
      "ç»ıåħ¸çļĦ": 7268,
      "çķªèĮĦéħ±": 7269,
      "ĠåĵªæĢķ": 7270,
      "çļĦæ¨¡æł·": 7271,
      "èº«å¤Ħ": 7272,
      "èĻ«æĹı": 7273,
      "éĴ¢å½±": 7274,
      "è¯§å¼Ĥ": 7275,
      "çļĦåıĺåĮĸ": 7276,
      "éĶĻäºĨ": 7277,
      "åĢ¾åĲĳ": 7278,
      "Ġå¼ķ": 7279,
      "å¯¹è§Ĩ": 7280,
      "æ³ķçļĦ": 7281,
      "ç¦»éĺ³": 7282,
      "çģµæ´»": 7283,
      "æīĢè°ĵçļĦ": 7284,
      "æµģæ·Į": 7285,
      "åĺ´å·´": 7286,
      "è´µçļĦ": 7287,
      "éľĩæĴ¼": 7288,
      "æľĢæĸ°çļĦ": 7289,
      "ä¸ĸçķĮä¹ĭ": 7290,
      "èĽĭçĻ½è´¨": 7291,
      "age": 7292,
      "cm": 7293,
      "æł¹æį®èĩªå·±çļĦ": 7294,
      "çĩ¥": 7295,
      "èĥĸåŃĲ": 7296,
      "26": 7297,
      "é¢Ĭ": 7298,
      "å¤ĸäºº": 7299,
      "ç¬ĳçļĦ": 7300,
      "éĵŃ": 7301,
      "åħĥå©´": 7302,
      "åı°éĺ¶": 7303,
      "çī¹æ®ĬçļĦ": 7304,
      "äºĨä»ĸçļĦ": 7305,
      "ä¸įæ¸ħæ¥ļ": 7306,
      "èĦĸåŃĲ": 7307,
      "ä½łä¹Ł": 7308,
      "åĬłæĪĲ": 7309,
      "äºĨå¥½": 7310,
      "æŃ¹": 7311,
      "åĢº": 7312,
      "ç§įæ¤į": 7313,
      "æĲı": 7314,
      "ä¸Ģæ®µæĹ¶éĹ´": 7315,
      "å¥Ķè·ĳ": 7316,
      "èŀº": 7317,
      "åĺ¿åĺ¿": 7318,
      "turn": 7319,
      "ç»·": 7320,
      "å¹²åĺĽ": 7321,
      "å¤§æ¦Ĥæĺ¯": 7322,
      "åº¦è¿ĩ": 7323,
      "çĵ·": 7324,
      "è¦ģä¸į": 7325,
      "èĢĮèµ·": 7326,
      "è½»å£°éģĵ": 7327,
      "ç²īä¸Ŀ": 7328,
      "ä¹Łå°±æĺ¯è¯´": 7329,
      "é£ŀå¿«": 7330,
      "è¯·éĹ®æĤ¨": 7331,
      "ç¨įç¨į": 7332,
      "é¢ĩä¸º": 7333,
      "2000": 7334,
      "ç»ĻäºĪ": 7335,
      "æİĴæĶ¾": 7336,
      "ç¼ºä¹ı": 7337,
      "çļĦé£İ": 7338,
      "æĺ¯åĵª": 7339,
      "éĥ½ä¸įæĺ¯": 7340,
      "æĦŁæ¿Ģ": 7341,
      "éĢıæĺİ": 7342,
      "æıĲåıĸåĩº": 7343,
      "èº«åĲİçļĦ": 7344,
      "æĽ´å¿«": 7345,
      "éħ¿": 7346,
      "æİ¨è¿Ľ": 7347,
      "ä¸Ģä¸ĭåŃĲ": 7348,
      "ç®Ģä»ĭ": 7349,
      "æ¬§æ´²": 7350,
      "ä¸įçģŃ": 7351,
      "éĤ£æĿ¡": 7352,
      "ä¿±ä¹Ĳ": 7353,
      "ä¸Ńæľī": 7354,
      "è¡¬": 7355,
      "å¹´ä»£": 7356,
      "åĽ½å¸Ī": 7357,
      "å¸®æĤ¨": 7358,
      "æ¯ıå¹´": 7359,
      "éĩįè¦ģçļĦæĺ¯": 7360,
      "èį¯çī©": 7361,
      "Ġä½¿çĶ¨": 7362,
      "ä½łåİ»": 7363,
      "ä¸ºä¸»é¢ĺ": 7364,
      "å¹³æĹ¶": 7365,
      "éĹ¨å¤ĸ": 7366,
      "one": 7367,
      "è¶ħåĩ¡": 7368,
      "æ¸ħæĻ¨": 7369,
      "æĺ¯æĪĳä»¬": 7370,
      "çĤŃ": 7371,
      "åºŁè¯Ŀ": 7372,
      "iz": 7373,
      "è¿ĻåĲį": 7374,
      "åĿŁ": 7375,
      "å¥³çĶŁ": 7376,
      "å¯ĴåĨ·": 7377,
      "æĦĪåıĳ": 7378,
      "ä¼ĺç§ĢçļĦ": 7379,
      "äºĨçīĩåĪ»": 7380,
      "èµ·çłģ": 7381,
      "åįģäºĶ": 7382,
      "çļĦåĳ³éģĵ": 7383,
      "åı¶ä¿®è¯´": 7384,
      "21": 7385,
      "äºĮäºº": 7386,
      "åĭĭ": 7387,
      "Ġæµ·": 7388,
      "èº«èº¯": 7389,
      "èĥ¡èĲĿåįľ": 7390,
      "Ġèİ«": 7391,
      "ç²¾åĩĨ": 7392,
      "éº¾": 7393,
      "çĲĨä¼ļ": 7394,
      "è¿ĳæĪĺ": 7395,
      "è¿ľç¨ĭ": 7396,
      "ç±³çļĦ": 7397,
      "èģĶç»ľ": 7398,
      "å¯ĴæĿ¾": 7399,
      "åĮª": 7400,
      "è¿ĺå¾Ĺ": 7401,
      "éĩĳä¸¹": 7402,
      "æĢĿå¿µ": 7403,
      "ä¸Ĭåįĩ": 7404,
      "å¾Īå¤§çļĦ": 7405,
      "ry": 7406,
      "æĪĲçĨŁ": 7407,
      "æľ¬è´¨": 7408,
      "éķ¿æľŁ": 7409,
      "ä»İä¸Ń": 7410,
      "ĠæĬĬ": 7411,
      "è¾¨": 7412,
      "æīĵçĿĢ": 7413,
      "èµ°è¿ĩ": 7414,
      "ind": 7415,
      "éĵ¶å¸ģ": 7416,
      "çļĦçĶŁæ´»": 7417,
      "æ³¼": 7418,
      "åı¯ä»¥æĺ¯": 7419,
      "æĪĸåħ¶ä»ĸ": 7420,
      "çº¢æ¥¼": 7421,
      "æķĮäººçļĦ": 7422,
      "è¿Ŀè§Ħ": 7423,
      "äºĭçļĦ": 7424,
      "æĢ¥å¿Ļ": 7425,
      "ç»£": 7426,
      "ä¸ļåĬ¡": 7427,
      "åĪĹè½¦": 7428,
      "å°±ç®Ĺæĺ¯": 7429,
      "è¿·éĽ¾": 7430,
      "ä¸ºæŃ¢": 7431,
      "éķ¿çĶŁ": 7432,
      "åĽŀåºĶ": 7433,
      "åıĳçĶŁäºĨ": 7434,
      "éľĢè¦ģæ³¨æĦıçļĦæĺ¯": 7435,
      "æ²Į": 7436,
      "å¥¹åľ¨": 7437,
      "æŃ£æĸ¹": 7438,
      "æĸ°äºº": 7439,
      "ä¿®å¤į": 7440,
      "æ°¸ä¹ħ": 7441,
      "æ¯ĶèµĽä¸Ń": 7442,
      "æĪĲç«ĭ": 7443,
      "æīĵåį°": 7444,
      "çĻ½çİī": 7445,
      "å°Ĭæķ¬": 7446,
      "åĽŀæĿ¥äºĨ": 7447,
      "æŀĹè¯Ń": 7448,
      "ä¸įæĹ¶": 7449,
      "åı¯ä¸į": 7450,
      "éĤ£æĹ¶åĢĻ": 7451,
      "åħ¬è¯ģ": 7452,
      "æĴ°": 7453,
      "æłĩçŃ¾": 7454,
      "æĹłèģĬ": 7455,
      "å¼ıçļĦ": 7456,
      "èĢĥèĻĳåĪ°": 7457,
      "åħļ": 7458,
      "çĶ¨åĵģ": 7459,
      "åıªåī©ä¸ĭ": 7460,
      "å°Ĩä»ĸ": 7461,
      "çİ°åľ¨è¯·": 7462,
      "èµĽåŃ£": 7463,
      "ĠæŀĹ": 7464,
      "æĥ³è¿ĩ": 7465,
      "åŃ¦èĢħ": 7466,
      "æ¥·": 7467,
      "âĢĶâĢĶâĢĿ": 7468,
      "è§£åĨ³è¿Ļä¸ªéĹ®é¢ĺ": 7469,
      "å°±æ²¡æľī": 7470,
      "å¤įçĶŁ": 7471,
      "å°ģéĹŃ": 7472,
      "å®ļæľŁ": 7473,
      "æ··æ²Į": 7474,
      "é¡¾å®¢": 7475,
      "è¿Ļé¦ĸè¯Ĺ": 7476,
      "ä¹Łå·²ç»ı": 7477,
      "æĲºå¸¦": 7478,
      "æĺ¯éĿŀå¸¸": 7479,
      "æĸ¹åľĨ": 7480,
      "æĹłéľĢ": 7481,
      "ç»Ļèĩªå·±": 7482,
      "èĭıæªĢåĦ¿": 7483,
      "æĮ¥æīĭ": 7484,
      "è¯¸å¤ļ": 7485,
      "çļĦçİ¯å¢ĥ": 7486,
      "ä¸Ģåī¯": 7487,
      "ä¸Ģä¸ªéĹ®é¢ĺ": 7488,
      "æķĻä¼ļ": 7489,
      "çºªåħĥ": 7490,
      "ä¸Ģæĸ¹": 7491,
      "æµ·æµª": 7492,
      "è¶ħaçº§": 7493,
      "ĊĠĠĠ": 7494,
      "è¡Ķ": 7495,
      "åıªåī©": 7496,
      "ç¥ŀå¥ĩ": 7497,
      "çİĭåºŃ": 7498,
      "è´Ŀå¦®": 7499,
      "æĤĦæĤĦ": 7500,
      "çģ«ç®Ń": 7501,
      "è¶ħå¸Ĥ": 7502,
      "æİĮæŁľ": 7503,
      "é¥¶": 7504,
      "çļĦæĪĺæĸĹ": 7505,
      "çļĦåŁºç¡Ģ": 7506,
      "æĪĳå¸ĮæľĽ": 7507,
      "ä½łä¸į": 7508,
      "ç¥Ī": 7509,
      "å¤©ç©ºä¸Ń": 7510,
      "æĺĬ": 7511,
      "éĤ£å¼ł": 7512,
      "å¯¹éĿ¢çļĦ": 7513,
      "æ¤ħåŃĲ": 7514,
      "è¿Ļäºº": 7515,
      "å°Ĩå®ĥä»¬": 7516,
      "åĿĲä¸ĭ": 7517,
      "ç»ĻæĪĳä¸Ģä¸ª": 7518,
      "èįīåİŁ": 7519,
      "ma": 7520,
      "æĢ»åħ±": 7521,
      "åļ£": 7522,
      "å¯¿åĳ½": 7523,
      "åĨĻçļĦ": 7524,
      "ess": 7525,
      "æľ´": 7526,
      "ç½²": 7527,
      "çķĻä¸ĭçļĦ": 7528,
      "æ½ľåĬĽ": 7529,
      "Ġçİĭæ¢ĵåįļ": 7530,
      "çļĦçĶŁåĳ½": 7531,
      "æĸ°éĹ»æĬ¥éģĵ": 7532,
      "ç¥Ŀç¦ı": 7533,
      "åĮĨåĮĨ": 7534,
      "åº¦åģĩ": 7535,
      "çĹħæ¯Ĵ": 7536,
      "çĬ¯ç½ª": 7537,
      "å¤ķéĺ³": 7538,
      "æ¸ļ": 7539,
      "æĬ±çĿĢ": 7540,
      "å¦Īå¦Ī": 7541,
      "éªĦ": 7542,
      "éľĢè¦ģçļĦ": 7543,
      "éĹªè¿ĩ": 7544,
      "ä¸Ģèº«": 7545,
      "åĺ»": 7546,
      "è®¡ç®Ĺåĩº": 7547,
      "èĲ¥åľ°": 7548,
      "ä»ĸäºº": 7549,
      "å¾Īå¥½çļĦ": 7550,
      "è¡Ģæ°Ķ": 7551,
      "ä¸ĥåħ«": 7552,
      "çĶ»åį·": 7553,
      "ä»Ĭå¤©çļĦ": 7554,
      "å¦¹å¦¹": 7555,
      "å¼¥æ¼«": 7556,
      "ä¸įå®ī": 7557,
      "åıĸå¾Ĺ": 7558,
      "æķ°æį®çļĦ": 7559,
      "ï¼ĮãĢĲ": 7560,
      "æľīè¿ĩ": 7561,
      "èº«ä¸º": 7562,
      "äºĨä¸Ģåıª": 7563,
      "ä¾¿åĪ©": 7564,
      "èĦ¸ä¸ĬçļĦ": 7565,
      "èµ·æĿ¥äºĨ": 7566,
      "è°¢è°¢ä½ł": 7567,
      "çº¢æ¥¼æ¢¦": 7568,
      "ĠåĲķ": 7569,
      "è¡Įèµ°": 7570,
      "ç¥ŀçļĩ": 7571,
      "è¿ľæ¸¸": 7572,
      "æĢ»è®¡": 7573,
      "åĴĮå°ı": 7574,
      "è®©äººä»¬": 7575,
      "å¹²æī°": 7576,
      "é¢ł": 7577,
      "çĶŁç´ł": 7578,
      "çľ¼çļĦ": 7579,
      "éªļ": 7580,
      "åįĩçº§": 7581,
      "å»ºè®¾": 7582,
      "Açº§": 7583,
      "åĴĮæ°´": 7584,
      "æĢĿç»ª": 7585,
      "å¼ķæĵİ": 7586,
      "éªĳåĨĽ": 7587,
      "æµĳèº«": 7588,
      "ä¹Łéĥ½": 7589,
      "ä¹ŁæĹłæ³ķ": 7590,
      "æİĺ": 7591,
      "æıį": 7592,
      "é«ĺå±Ĥ": 7593,
      "è¿ľç¦»": 7594,
      "æľįè£ħ": 7595,
      "åı¤ç¥ŀ": 7596,
      "èĪŀè¹Ī": 7597,
      "é»Ľ": 7598,
      "å¸ĥç½®": 7599,
      "art": 7600,
      ")```": 7601,
      "å½ĵæĪĳä»¬": 7602,
      "ä¸»é¢ĺæĺ¯": 7603,
      "æĦŁåıĹåĪ°äºĨ": 7604,
      "ä¸ĢçĻ¾": 7605,
      "ä½ĵåŀĭ": 7606,
      "åį´åıĪ": 7607,
      "æ½º": 7608,
      "Ġcom": 7609,
      "çĽ¸å½ĵäºİ": 7610,
      "ï¼ļãĢĬ": 7611,
      "å®ŀè¯Ŀ": 7612,
      "åĮħåĽ´": 7613,
      "çģ°èī²": 7614,
      "å¿łè¯ļ": 7615,
      "ä¸Ģè¶Ł": 7616,
      "èĥĥ": 7617,
      "çĮĽçĦ¶": 7618,
      "æľĢé«ĺçļĦ": 7619,
      "æ©Ħæ¦Ħæ²¹": 7620,
      "Hello": 7621,
      "éĩįåĬĽ": 7622,
      "æµģè¡ĮçļĦ": 7623,
      "åĭº": 7624,
      "èĥ¸åı£": 7625,
      "æµģç¨ĭ": 7626,
      "è¶ħçº§": 7627,
      "å¾Ĳéªģ": 7628,
      "æµ©çĦ¶å¤©ä¸ĭ": 7629,
      "çļĦèĥ½éĩı": 7630,
      "çļĦåŃ£èĬĤ": 7631,
      "äºĨä¸įå°ĳ": 7632,
      "æĪĳè®¤ä¸º": 7633,
      "åħµåĻ¨": 7634,
      "ä¹Łä¸įèĥ½": 7635,
      "æĪ¿åŃĲ": 7636,
      "åĴĮå°ļ": 7637,
      "åİ¢": 7638,
      "æķ°æĺ¯": 7639,
      "ä¸ĸçķĮæłĳ": 7640,
      "èĸĽ": 7641,
      "å¥½åıĭ": 7642,
      "åıªå¥½": 7643,
      "æĹłåħ³": 7644,
      "ä¸īçĻ¾": 7645,
      "è¿ĳä¹İ": 7646,
      "ç©¿éĢı": 7647,
      "åĨĻä¸Ģç¯ĩåħ³äºİ": 7648,
      "æıĲä¸°": 7649,
      "çİ¯é¡¾": 7650,
      "äºĳç«¹": 7651,
      "å±ħä½ı": 7652,
      "ç§ĴéĴŁ": 7653,
      "å¤§èĦĳ": 7654,
      "æĽ´å¤§": 7655,
      "å¸¸è§ģ": 7656,
      "çİĭéĩĳæ´ĭ": 7657,
      "çļĦæķ°æį®": 7658,
      "çŁ¥æĻĵ": 7659,
      "æ¶¯": 7660,
      "éŁ§": 7661,
      "æ®·": 7662,
      "æĮĩåĲĳ": 7663,
      "',": 7664,
      "è¯´åĪ°": 7665,
      "ä¸İåħ¶ä»ĸ": 7666,
      "çĮ¿": 7667,
      "å²ļ": 7668,
      "æ³¨è§ĨçĿĢ": 7669,
      "éĽªèĬ±": 7670,
      "é¸ŁåĦ¿": 7671,
      "ç»ķçĿĢ": 7672,
      "ç¿ħèĨĢ": 7673,
      "å¤§è±¡": 7674,
      "å¦Ĥæŀľä¸įæĺ¯": 7675,
      "çļĦçİ©å®¶": 7676,
      "ä»ĸå¯¹": 7677,
      "è®°ä½ı": 7678,
      "Ġè¥¿": 7679,
      "çļĦçĬ¶æĢģ": 7680,
      "éĢļçŁ¥": 7681,
      "æ²īå£°éģĵ": 7682,
      "å¯Įæľī": 7683,
      "èĥ¡æŀĹè¯Ń": 7684,
      "å£°åĵį": 7685,
      "æĶ¶åĽŀ": 7686,
      "é¦Ļæ°Ķ": 7687,
      "Ġcan": 7688,
      "çºªå¿µ": 7689,
      "ä¼¦æķ¦": 7690,
      "è¡·": 7691,
      "çľĭä¸Ĭåİ»": 7692,
      "å°Ĩåľ¨": 7693,
      "å±±å¤´": 7694,
      "ä¹ĲæĦı": 7695,
      "æİ¨å¹¿": 7696,
      "å¯Ĩåº¦": 7697,
      "ç¬Ķè®°": 7698,
      "è¿Ļç±»": 7699,
      "æĹ·": 7700,
      "åħ¶å®ŀæĺ¯": 7701,
      "ç¥ĸå¸ĪåłĤ": 7702,
      "å¥İå±±": 7703,
      "éĿĴéĴ¢å½±": 7704,
      "å¼ķåıĳ": 7705,
      "çļĦå¤§å°ı": 7706,
      "è®©äººæĦŁåĪ°": 7707,
      "33": 7708,
      "è¿ĻèĪ¬": 7709,
      "å±Ĭ": 7710,
      "åĲİéĢĢ": 7711,
      "éľĨ": 7712,
      "ç»ĻåĩºçļĦ": 7713,
      "åĽŀæĶ¶": 7714,
      "ç«Łæĺ¯": 7715,
      "æ³ķåĬĽåĢ¼": 7716,
      "çĿĢæĢ¥": 7717,
      "åıĬåħ¶": 7718,
      "åĽĽå¤§": 7719,
      "Ġä¸ĢåĲį": 7720,
      "åĴĮè°Ĳ": 7721,
      "æĹ¶éĹ´åĨħ": 7722,
      "éľĩæĥĬ": 7723,
      "Ġç»Ļåĩº": 7724,
      "å§ĵåĲį": 7725,
      "åħ¼": 7726,
      "ä¼łåĩº": 7727,
      "å¯ĨçļĦ": 7728,
      "è§£åĨ³éĹ®é¢ĺ": 7729,
      "lv": 7730,
      "åĴĮä¸Ģä¸ª": 7731,
      "æĿ¥å¾Ĺ": 7732,
      "æĢİä¹Īåı¯èĥ½": 7733,
      "éĴ¥åĮĻ": 7734,
      "è¡°": 7735,
      "éĤ£ä¹Īè¯·ä½ł": 7736,
      "ç¤¾åĮº": 7737,
      "å±ĳ": 7738,
      "å°Ĩè¿ĻäºĽ": 7739,
      "å®¹åĻ¨": 7740,
      "åºŁå¢Ł": 7741,
      "é¢¤æĬĸ": 7742,
      "Ġlike": 7743,
      "çļĦåĲĹ": 7744,
      "è®½": 7745,
      "èīĩ": 7746,
      "å°Ĩè¿Ļ": 7747,
      "ä¼´éļıçĿĢ": 7748,
      "æľ¬æĸĩ": 7749,
      "åģļæ³ķ": 7750,
      "åĲ¬éĹ»": 7751,
      "è¾±": 7752,
      "èĢĮæĿ¥çļĦ": 7753,
      "å¥³çİĭ": 7754,
      "è¾¾æĪĲ": 7755,
      "ĠCh": 7756,
      "å¾Īç®Ģåįķ": 7757,
      "è¯·æıĲä¾Ľ": 7758,
      "åģ¿": 7759,
      "ä¸¤æĿ¡": 7760,
      "åĽ½çİĭ": 7761,
      "äº¤æį¢": 7762,
      "ä¸ĢæĬ¹": 7763,
      "æľīç§į": 7764,
      "æķ´åº§": 7765,
      "ä¸įå®ļ": 7766,
      "å¤©çĦ¶": 7767,
      "åİ»çľĭ": 7768,
      "çļĦåħ·ä½ĵ": 7769,
      "æĽ´å®¹æĺĵ": 7770,
      "çŀĴ": 7771,
      "æĪĺåľºä¸Ĭ": 7772,
      "èĦ¾æ°Ķ": 7773,
      "ãĢĤ\\": 7774,
      "æłĪ": 7775,
      "ä¹ŁéľĢè¦ģ": 7776,
      "åŀ«": 7777,
      "åı¶ç§ĭ": 7778,
      "èĤīèº«": 7779,
      "æĬķåħ¥": 7780,
      "è·³è·ĥ": 7781,
      "ç½ªäºļ": 7782,
      "å´©æºĥ": 7783,
      "ä¸ŃéĢīæĭ©": 7784,
      "å¤ļæ¬¡": 7785,
      "çľĭåİ»": 7786,
      "æķħäºĭæĥħ": 7787,
      "å¹´è½»çļĦ": 7788,
      "æ³¨æĦıåĪ°": 7789,
      "ä»ĸä¸į": 7790,
      "äººå£«": 7791,
      "æ¢§": 7792,
      "å¤ľèī²": 7793,
      "æĬĺæī£": 7794,
      "åĶ¯ä¸ĢçļĦ": 7795,
      "ime": 7796,
      "Ġæ²¡æľī": 7797,
      "çľĭä¸įåĪ°": 7798,
      "å®ĥåľ¨": 7799,
      "ä¸İäºº": 7800,
      "è¾Ľèĭ¦": 7801,
      "Ġhe": 7802,
      "è®©èĩªå·±": 7803,
      "åĪ©äºļ": 7804,
      "åĨ²éĶĭ": 7805,
      "ç¼ĸç¨ĭè¯Ńè¨Ģ": 7806,
      "æĶĴ": 7807,
      "èĢĮä¸į": 7808,
      "æĥ³æĥ³": 7809,
      "éļıåį³": 7810,
      "åħ°çī¹": 7811,
      "åĿļå®ļ": 7812,
      "ä½Ĳ": 7813,
      "æ°Ķè±¡": 7814,
      "æİ¥è¿ĩ": 7815,
      "åįģå¹´": 7816,
      "ell": 7817,
      "éĺ»æŃ¢": 7818,
      "è¿ĻçŃī": 7819,
      "åľ¨èĭıæĻĵ": 7820,
      "é¡ºä¾¿": 7821,
      "ag": 7822,
      "æīĵäºĨ": 7823,
      "éĢıè¿ĩ": 7824,
      "ore": 7825,
      "èħ¥": 7826,
      "çĶŁæĪĲä¸Ģé¦ĸ": 7827,
      "å¹¿åľº": 7828,
      "èº«è¾¹çļĦ": 7829,
      "é¡¶å°ĸ": 7830,
      "iv": 7831,
      "å¯ĵ": 7832,
      "ä¹ŁéĿŀå¸¸": 7833,
      "çĲĲ": 7834,
      "è¿Ļæĺ¯åĽłä¸º": 7835,
      "å¿ħè¦ģçļĦ": 7836,
      "èĦĸé¢Ī": 7837,
      "æķħäºĭæĥħèĬĤ": 7838,
      "çļĦæĢģåº¦": 7839,
      "æ´»åĬĽ": 7840,
      "éĿĻéĿĻåľ°": 7841,
      "åĺĢåĴķ": 7842,
      "çļĦéĤ£ä¸ª": 7843,
      "åı¯æĢľ": 7844,
      "å¤§äºĭ": 7845,
      "ä¹Łå¾Ĺ": 7846,
      "æĪĲæŀľ": 7847,
      "æľīä¸Ģåıª": 7848,
      "ä¸įä»ħä»ħ": 7849,
      "åĴķåĻľ": 7850,
      "çļĦåħīèĬĴ": 7851,
      "çļĦæĶ»åĩ»": 7852,
      "éĤĵ": 7853,
      "å®īæħ°": 7854,
      "å¦ĤæŀľæĤ¨åĸľæ¬¢": 7855,
      "åº¸": 7856,
      "çĻ½èī²çļĦ": 7857,
      "èĩ³ä»Ĭ": 7858,
      "å·¦æīĭ": 7859,
      "åĩıè½»": 7860,
      "æ¯¯": 7861,
      "ç§įæĹı": 7862,
      "è¿Ľå±ķ": 7863,
      "ä»¥ä¸ĭæĺ¯ä¸Ģ": 7864,
      "éªĮè¯ģ": 7865,
      "åıįåºĶè¿ĩæĿ¥": 7866,
      "æ²ĪéĿĴç«¹": 7867,
      "ç¿¼ç¿¼": 7868,
      "å¥³çľŁäºº": 7869,
      "åĽļ": 7870,
      "ä»ĸè¦ģ": 7871,
      "åľºéĿ¢": 7872,
      "æľīäºĽäºº": 7873,
      "çĴŀ": 7874,
      "Ġå¸®æĪĳ": 7875,
      "æĹłç©·": 7876,
      "åħ¬å¹³": 7877,
      "åĺ¶": 7878,
      "ä¸»äººåħ¬": 7879,
      "DNA": 7880,
      "Ġéĩĳ": 7881,
      "å¾ĹåĪĨ": 7882,
      "éĿ¢åħ·": 7883,
      "åĨĽå®ĺ": 7884,
      "åĽĽå¤Ħ": 7885,
      "ç¿»è¯ĳä¸º": 7886,
      "æĪĳåı¯ä»¥ä¸ºæĤ¨": 7887,
      "å·²ç»ıå¼Ģå§ĭ": 7888,
      "æ¸ħé£İ": 7889,
      "åıįé¦Ī": 7890,
      "åº§ä½į": 7891,
      "æĻ®éĢļäºº": 7892,
      "ä¸ĢéĹª": 7893,
      "ç¼ļ": 7894,
      "å¥ĩå¦Ļ": 7895,
      "è·ĳäºĨ": 7896,
      "äº§çĶŁçļĦ": 7897,
      "èººåľ¨": 7898,
      "ç¤¾äº¤åªĴä½ĵ": 7899,
      "åİļçļĦ": 7900,
      "æĺ¨æĻļ": 7901,
      "åĴ§åĺ´": 7902,
      "å°ıæĹ¶åĲİ": 7903,
      "ç¿»è¯ĳæĪĲèĭ±æĸĩ": 7904,
      "120": 7905,
      "æĪĳå»ºè®®": 7906,
      "å°ıå£°": 7907,
      "å°ıéĽ¨": 7908,
      "åįķçĭ¬": 7909,
      "åľŁå£¤": 7910,
      "å±ıéļľ": 7911,
      "å¤§å£°": 7912,
      "åĬ¨çĿĢ": 7913,
      "æİ¥ä¸ĭæĿ¥çļĦ": 7914,
      "çļĦäººä»¬": 7915,
      "åĮºåĿĹ": 7916,
      "ä¼¤åı£": 7917,
      "åĩĨå¤ĩå¥½": 7918,
      "èĥ¸èĨĽ": 7919,
      "è¡Įäºĭ": 7920,
      "å¤ĩçĶ¨": 7921,
      "å°½å¤´": 7922,
      "ç§°åĳ¼": 7923,
      "æĵĤ": 7924,
      "é¥¼å¹²": 7925,
      "èĻļç©ºä¹ĭæłĳ": 7926,
      "çļĦèº«ä»½": 7927,
      "éĿ¢åĽ¢": 7928,
      "éļ¾å¾Ĺ": 7929,
      "å²Ń": 7930,
      "æľĢåĲİçļĦ": 7931,
      "Ġwe": 7932,
      "ä¸īè§Ĵå½¢çļĦ": 7933,
      "æĺ¯å¦Ĥä½ķ": 7934,
      "èĥ½åľ¨": 7935,
      "æĺŁçķĮ": 7936,
      "é©³": 7937,
      "ç¿»çĤĴ": 7938,
      "ä¸įéĶĻçļĦéĢīæĭ©": 7939,
      "æĭĲ": 7940,
      "æĬĬæı¡": 7941,
      "å¿«æŃ¥": 7942,
      "ä½ĵçİ°": 7943,
      "éĽĩ": 7944,
      "çĥ¬": 7945,
      "æĥĬäººçļĦ": 7946,
      "è¯´è¯´": 7947,
      "Ġmy": 7948,
      "éĹ®åīĳ": 7949,
      "Ġäºº": 7950,
      "å¥¥æľ¯": 7951,
      "æªĹ": 7952,
      "æĨ¨": 7953,
      "================": 7954,
      "æľīåĩł": 7955,
      "è¿Ľåº¦": 7956,
      "æ·±åĲ¸": 7957,
      "è¿Ĳè¾ĵ": 7958,
      "éŃıæªĹ": 7959,
      "å¤§æµ·": 7960,
      "æĽĻ": 7961,
      "ä»Ģä¹Īæł·çļĦ": 7962,
      "åĲĦç±»": 7963,
      "æ£ī": 7964,
      "åį°è®°": 7965,
      "éĽ·éľĨ": 7966,
      "è¿Ļå¹ħ": 7967,
      "å®ŀè·µ": 7968,
      "è§ģè¯Ĩ": 7969,
      "Ġè¿Ļæ¬¡": 7970,
      "èĳµ": 7971,
      "æ¢¦å¢ĥ": 7972,
      "æ¯«åįĩ": 7973,
      "åĨ¬å¤©": 7974,
      "éĥ½æľīäºĽ": 7975,
      "æĳ§": 7976,
      "çĨ¬": 7977,
      "ä¼¼ä¹İæĺ¯": 7978,
      "ps": 7979,
      "çĭ©": 7980,
      "çĲĥåĳĺ": 7981,
      "åīįçº¿": 7982,
      "æĺŁè¾°": 7983,
      "ç»´çĶŁç´ł": 7984,
      "ä¸ĵæ³¨": 7985,
      "åľ¨åĵª": 7986,
      "è¿ĩå¾Ĺ": 7987,
      "æĽ´å¤§çļĦ": 7988,
      "ĠO": 7989,
      "ä»Ģä¹ĪçļĦ": 7990,
      "éķ¿åīĳ": 7991,
      "çĻ»å±±": 7992,
      "éĴ¢çĲ´": 7993,
      "å§¿æĢģ": 7994,
      "ove": 7995,
      "å®ŀä½ĵ": 7996,
      "çĮ«åĴª": 7997,
      "å¨ģåħ°çī¹": 7998,
      "è½°çĦ¶": 7999,
      "æĬ±æŃī": 8000,
      "çļĦåįķè¯į": 8001,
      "åľ¨å¥¹": 8002,
      "ä¹ĭå¿ĥ": 8003,
      "ä¹ĭçİĭ": 8004,
      "æĪĳä»¬è¦ģ": 8005,
      "è¡¨çİ°åĩº": 8006,
      "å¤¸å¼ł": 8007,
      "ä¹ĺåĿĲ": 8008,
      "Ġå®ģæ¯ħ": 8009,
      "äºĨä¸Ģéĺµ": 8010,
      "èªīä¸º": 8011,
      "ä¸ĺ": 8012,
      "æĺ¯çľŁçļĦ": 8013,
      "æĪĺèĥľ": 8014,
      "æĸĩæľ¬åĨħå®¹": 8015,
      "äºĨæĮĩ": 8016,
      "åħĪæĺ¯": 8017,
      "æµģçķħ": 8018,
      "èĦ¸é¢Ĭ": 8019,
      "å«ģ": 8020,
      "æ£ĭåŃĲ": 8021,
      "çļĦçī¹çĤ¹": 8022,
      "åľ¨å¤©": 8023,
      "ä»¥åħį": 8024,
      "çĿĢäºĨ": 8025,
      "é»ĳèī²çļĦ": 8026,
      "èħĬ": 8027,
      "éĿŀå¸¸éĢĤåĲĪ": 8028,
      "åįĥéĩĮ": 8029,
      "å¦ĤæŀľæĤ¨éľĢè¦ģ": 8030,
      "ä¼łç»ŁçļĦ": 8031,
      "è¯¾ç¨ĭ": 8032,
      "çļĦçĶ·äºº": 8033,
      "è®¤åı¯": 8034,
      "ä¸¤ä¸ªäºº": 8035,
      "Ġç»Ļåĩºä¸Ģä¸ª": 8036,
      "æ¯ģäººä¸į": 8037,
      "çĶ¨åĬĽ": 8038,
      "æ·Ģ": 8039,
      "è±ģ": 8040,
      "åį´æ²¡æľī": 8041,
      "åĸľçĪ±": 8042,
      "ä¸įè¿ĩæĺ¯": 8043,
      "æīĵçļĦ": 8044,
      "æ¯ģäººä¸įåĢ¦": 8045,
      "åĽŀåĪ°äºĨ": 8046,
      "åıĺæļĸ": 8047,
      "ç§ĭé£İ": 8048,
      "çĴĩ": 8049,
      "âĺ": 8050,
      "çŃĴ": 8051,
      "ÏĢ": 8052,
      "èº«å¿ĥ": 8053,
      "åĲĦå¤§": 8054,
      "åĮĹæĸ¹": 8055,
      "è¸¹": 8056,
      "Ġcon": 8057,
      "çĶ³è¯·": 8058,
      "çļĦéĩĳ": 8059,
      "æĪĳèĥ½": 8060,
      "å¼ķå¯¼": 8061,
      "äºīåıĸ": 8062,
      "çĲĨè§£åĴĮ": 8063,
      "è®²è¿°äºĨ": 8064,
      "éĩıåŃĲåĬĽåŃ¦": 8065,
      "æĽĻåħī": 8066,
      "æ²īæµ¸": 8067,
      "åħĳæį¢": 8068,
      "çļĦçĽ®æłĩ": 8069,
      "ä¸įæĦ¿æĦı": 8070,
      "çī²": 8071,
      "æĦıæĸĻ": 8072,
      "èµ·æĿ¥çļĦ": 8073,
      "åľŃ": 8074,
      "ç±³é¥Ń": 8075,
      "æłĳæŀĿ": 8076,
      "è¾ĥä¸º": 8077,
      "åıĤè§Ĥ": 8078,
      "ä¿±ä¹Ĳéĥ¨": 8079,
      "ä¸Ģåĩº": 8080,
      "éĤ£è¯·éĹ®": 8081,
      "ä¹Łåıªæĺ¯": 8082,
      "è¿ĻäºĽéĥ½æĺ¯": 8083,
      "ç®Ģè¦ģ": 8084,
      "æııè¿°äºĨ": 8085,
      "æĿĲè´¨": 8086,
      "ish": 8087,
      "æĽ¿ä»£": 8088,
      "Ġå°Ĩä»¥ä¸ĭåı¥åŃĲ": 8089,
      "ĠåĪĽä½ľä¸Ģé¦ĸ": 8090,
      "å¤§åįĬ": 8091,
      "ä¹ĭéĹ¨": 8092,
      "æĦıåĽ¾": 8093,
      "è§Ĥæµĭ": 8094,
      "èĩªèº«çļĦ": 8095,
      "çģ¿çĥĤ": 8096,
      "å¥½ä¼¼": 8097,
      "çİĭåŃĲ": 8098,
      "æķ´éĻ¤": 8099,
      "åŃ¦ä¹łåĴĮ": 8100,
      "åĵªæĢķæĺ¯": 8101,
      "åľ¨åįĬ": 8102,
      "å®ĮåĸĦ": 8103,
      "æİłå¤º": 8104,
      "æ¶Īè´¹èĢħ": 8105,
      "çļĦéĿĴ": 8106,
      "åĵĩ": 8107,
      "èį«": 8108,
      "æĺ¯ä¸ĢåĲį": 8109,
      "æ¸¸å®¢": 8110,
      "æĪ´çĿĢ": 8111,
      "ä¸įèĩ³äºİ": 8112,
      "é¢Ħè®¢": 8113,
      "æľīä¸Ģç§į": 8114,
      "è´§å¸ģ": 8115,
      "ter": 8116,
      "ä¿ĿéĻ©": 8117,
      "Ġè¿Ļä¸ĢåĪ»": 8118,
      "ood": 8119,
      "è¦ģè¯´": 8120,
      "äºĽè®¸": 8121,
      "åĢļ": 8122,
      "ç½ªäºļæĸ¯": 8123,
      "ĠæĿ¨": 8124,
      "éļ¾æĢª": 8125,
      "ä»¥ä¸ĭéĹ®é¢ĺ": 8126,
      "ä¸ĩä¸Ģ": 8127,
      "èºģ": 8128,
      "èĢĮè¿ĩ": 8129,
      "çģ¼": 8130,
      "åĲ¬åĪ°äºĨ": 8131,
      "åĩ³": 8132,
      "èµİ": 8133,
      "éĥ½æĺ¯ä¸Ģ": 8134,
      "å¯¹æ¯Ķ": 8135,
      "ç¨ļ": 8136,
      "åı¯èĥ½çļĦ": 8137,
      "é³ŀ": 8138,
      "éģµå®Ī": 8139,
      "ia": 8140,
      "éĤ£è¯·ä½ł": 8141,
      "çĶ¨éĢĶ": 8142,
      "æ¸ħçĲĨ": 8143,
      "å¦Ĥä½ķåľ¨": 8144,
      "çļĦä¸ĢäºĽ": 8145,
      "éĺ±": 8146,
      "è¿ĲçĶ¨": 8147,
      "éŃĶçģµ": 8148,
      "æļĹå½±": 8149,
      "çıĤ": 8150,
      "ç´§æĢ¥": 8151,
      "å¿Ļç¢Į": 8152,
      "è°¢è°¢ä½łçļĦ": 8153,
      "èĢģå®ŀ": 8154,
      "æ¶Īæŀģ": 8155,
      "æĺ¯åĲ¦æľī": 8156,
      "è®¾è®¡ä¸Ģä¸ª": 8157,
      "èĤ¯å®ļæĺ¯": 8158,
      "range": 8159,
      "å¤©åĲ¯ä¹ĲåĽŃ": 8160,
      "æĭ½": 8161,
      "åīįæĸ¹çļĦ": 8162,
      "éĹ®é¢ĺæĺ¯": 8163,
      "å½ĵçĦ¶æĺ¯": 8164,
      "çļĦåŁºæľ¬": 8165,
      "æľºåĪ¶": 8166,
      "é£İåħī": 8167,
      "é»Ħæĺı": 8168,
      "è¯ŀçĶŁ": 8169,
      "åĵĹ": 8170,
      "éĩįä¼¤": 8171,
      "åįģåħŃ": 8172,
      "æĬĬä»ĸ": 8173,
      "åıĮçľ¸": 8174,
      "åĺ´éĩĮ": 8175,
      "æ¼«æŃ¥": 8176,
      "åĪł": 8177,
      "ä¸ªä½ĵ": 8178,
      "çĶŁä¸ĸçķĮ": 8179,
      "åľ°çĲĥä¸Ĭ": 8180,
      "æĥ³çļĦ": 8181,
      "èħĶ": 8182,
      "èĬĤçĽ®": 8183,
      "åŃĻç¿Ķ": 8184,
      "çĽĲåĴĮ": 8185,
      "èľĤèľľ": 8186,
      "ava": 8187,
      "ä¸Ģè¾Ĩ": 8188,
      "åľ¨å¤ĸ": 8189,
      "ç«ĻçĿĢ": 8190,
      "éĹº": 8191,
      "æĥħæĻ¯": 8192,
      "èŃ¦åĳĬ": 8193,
      "æĺĵäºİ": 8194,
      "äºĨä¸Ģä½į": 8195,
      "çģµæ°Ķ": 8196,
      "è¶³è¶³": 8197,
      "ç©¿è¶Ĭ": 8198,
      "æ³¢ç½Ĺ": 8199,
      "éº¦åĨ¬": 8200,
      "rt": 8201,
      "æĸĩä»¶": 8202,
      "é»Ħå°ĳ": 8203,
      "åĮ»çĸĹé¢ĨåŁŁ": 8204,
      "Ġæ¯ķç«Ł": 8205,
      "æĥ©": 8206,
      "å¯¨": 8207,
      "èº«åŃĲ": 8208,
      "æ¢³": 8209,
      "çĽ¸åĲĮçļĦ": 8210,
      "çļĦåŁİå¸Ĥ": 8211,
      "ä¸ĢåĽ¢": 8212,
      "çĿĢèĦ¸": 8213,
      "è¿ĺæľīä¸ĢäºĽ": 8214,
      "å®ģå¿Į": 8215,
      "åĲ¯åĬ¨": 8216,
      "ä¸Ģåĩ»": 8217,
      "ï¼ģ\"": 8218,
      "è°¦": 8219,
      "èĢģèĻİ": 8220,
      "ä¿¡å¿ĥ": 8221,
      "å½¢æĪĲçļĦ": 8222,
      "åįĥç±³": 8223,
      "åļ·": 8224,
      "ĠâĢĶâĢĶ": 8225,
      "ä¹ĭæĥħ": 8226,
      "å·±æĸ¹": 8227,
      "Ġ25": 8228,
      "æŀĹä¸ĥå¤ľçļĦ": 8229,
      "å°±åĥıæĺ¯": 8230,
      "çļĦéĩįè¦ģæĢ§": 8231,
      "ç½¡": 8232,
      "å¨ĩ": 8233,
      "æĢ»ç®Ĺ": 8234,
      "èĥĮä¸Ĭ": 8235,
      "oc": 8236,
      "ĠéĻĨæ²ī": 8237,
      "çļĦåĲį": 8238,
      "å¤§è§Ħæ¨¡": 8239,
      "å¾Īä¸įéĶĻ": 8240,
      "ä¸İéĤ£": 8241,
      "æ¶¡": 8242,
      "è¿Ļç¾¤": 8243,
      "è¿ĳæľŁ": 8244,
      "çļĦæķĪæŀľ": 8245,
      "åľ¨åĨħ": 8246,
      "æĿ¥åĪ°äºĨ": 8247,
      "èĥ¶": 8248,
      "éĹ°å¹´": 8249,
      "å¾Īä¸į": 8250,
      "é¦ĸé¢Ĩ": 8251,
      "è¿Ľè¡ĮäºĨ": 8252,
      "æ¡Īä»¶": 8253,
      "åģıå¥½": 8254,
      "å®ĩå®ĻçļĦ": 8255,
      "èľľèľĤ": 8256,
      "éĤªæķĻ": 8257,
      "æĹłå°½çļĦ": 8258,
      "å¼ĢæĿ¥": 8259,
      "åīĳå®¢": 8260,
      "æ¬¢ä¹Ĳ": 8261,
      "åĩıåİ»": 8262,
      "çļĦç¬¬ä¸Ģ": 8263,
      "æľĢæĸ°": 8264,
      "è§£è¯»": 8265,
      "åħįè´¹": 8266,
      "åĮĸåĴĮ": 8267,
      "æł¼å¼ı": 8268,
      "è°ĥæĸĻ": 8269,
      "æĸĩåĮĸåĴĮ": 8270,
      "Ġä¸İæŃ¤åĲĮæĹ¶": 8271,
      "This": 8272,
      "æĹłæīĢè°ĵ": 8273,
      "éĵħ": 8274,
      "ç½ĳä¸Ĭ": 8275,
      "è¯Ĺäºº": 8276,
      "ne": 8277,
      "çīĴ": 8278,
      "åı¤åħ¸": 8279,
      "èİ«æŀĹ": 8280,
      "åŃ©åŃĲä»¬": 8281,
      "ç³Łç³ķ": 8282,
      "è¿Ļå¸®": 8283,
      "æĪĳå¯¹": 8284,
      "ä»ĸèĥ½": 8285,
      "ä½łæľī": 8286,
      "Ġè¿ĻæĹ¶åĢĻ": 8287,
      "éĢļå¸¸æĺ¯": 8288,
      "èĢ½": 8289,
      "å¸ĸ": 8290,
      "éĥ½çŁ¥éģĵ": 8291,
      "ä¸ĩå¹´": 8292,
      "æİ¢æµĭ": 8293,
      "ame": 8294,
      "are": 8295,
      "æĸĭ": 8296,
      "æĪĳæ²¡": 8297,
      "éĿ¢æĿ¡": 8298,
      "æľĢå¼º": 8299,
      "çĻ½çľ¼": 8300,
      "è¶ħAçº§": 8301,
      "ĠæĬĢèĥ½": 8302,
      "çļĦéĢīæĭ©": 8303,
      "ä¸įä¿¡": 8304,
      "éĥ¨èĲ½": 8305,
      "èĭ±éĩĮ": 8306,
      "æĺ¯éĤ£": 8307,
      "ä¹ŁæľīäºĽ": 8308,
      "è¯·æ±Ĥ": 8309,
      "éħįæĸ¹": 8310,
      "è°ĵè¯Ń": 8311,
      "åĽºå®ļ": 8312,
      "ä»ªå¼ı": 8313,
      "ib": 8314,
      "æĿ¥è®²": 8315,
      "ä¹ĭèī²": 8316,
      "ç®Ĺè®¡": 8317,
      "åīĳæľ¯": 8318,
      "æĮĩäºĨæĮĩ": 8319,
      "äºĶå¢ĥ": 8320,
      "åĽ¾æ¡Ī": 8321,
      "å¼±çļĦ": 8322,
      "ĠæŃ£": 8323,
      "æĸ¯åĿ¦": 8324,
      "åĪĿæŃ¦": 8325,
      "èį£èªī": 8326,
      "ä¸ĢåıĮ": 8327,
      "ä»ĸçİ°åľ¨": 8328,
      "ä¿Ŀåģ¥": 8329,
      "æµģæ°´": 8330,
      "é¢Ħéĺ²": 8331,
      "åĨ¬åŃ£": 8332,
      "çĽ²": 8333,
      "ä¹ĭä¸»": 8334,
      "è¿ĩåº¦": 8335,
      "ä¸¤å¤©": 8336,
      "åħ¨éĿ¢": 8337,
      "å¼ķäºº": 8338,
      "æµĭéĩı": 8339,
      "æĿ¿ä¸Ĭ": 8340,
      "çļĳ": 8341,
      "ä½łæľīä»Ģä¹Ī": 8342,
      "è¿ĩåĲİ": 8343,
      "ä¿ĺ": 8344,
      "å°ıåĿĹ": 8345,
      "å¾Īé«ĺ": 8346,
      "æłĳæŀĹ": 8347,
      "åķĨéĩı": 8348,
      "çĶŁæ´»ä¸Ń": 8349,
      "du": 8350,
      "è¿ĺæľīä»Ģä¹Ī": 8351,
      "ä¼Ĺç¥ŀ": 8352,
      "å±ĭåŃĲ": 8353,
      "æ£Ģæµĭ": 8354,
      "çļĦæĸĩæľ¬": 8355,
      "åľ¨å±±": 8356,
      "é¢ľèī²çļĦ": 8357,
      "ä¼ªè£ħ": 8358,
      "ä¸«å¤´": 8359,
      "ä¸įåłª": 8360,
      "ä½¿åĬ²": 8361,
      "åĸĿéģĵ": 8362,
      "æľĹçİĽ": 8363,
      "åĶ¤éĨĴ": 8364,
      "çļĦä¹¦": 8365,
      "äºĨåķĬ": 8366,
      "è¯´èµ·": 8367,
      "èĥĢ": 8368,
      "æµ·å²¸": 8369,
      "æĳĩæĻĥ": 8370,
      "æ¯ģçģŃ": 8371,
      "ĠéĤ£ä¸ª": 8372,
      "è¡Ļ": 8373,
      "ç»Ļä»ĸä»¬": 8374,
      "ç¾İå¨Ł": 8375,
      "åŁİå¤´": 8376,
      "æľĪä»½": 8377,
      "å¥ĩè¿¹": 8378,
      "åĢ¼å¾Ĺä¸Ģ": 8379,
      "çıłç©Ĩ": 8380,
      "çıłç©ĨæľĹçİĽ": 8381,
      "ave": 8382,
      "è¿ĻæĦıåĳ³çĿĢ": 8383,
      "çľĭåĪ°çļĦ": 8384,
      "çĦ¶åĲİå°Ĩ": 8385,
      "çĶŁæĪĲä¸Ģç¯ĩ": 8386,
      "ä¸¾åĬ¨": 8387,
      "âĪ": 8388,
      "ä¸ĢåĬ¨": 8389,
      "åĲĮæł·çļĦ": 8390,
      "åħ¨éĥ½": 8391,
      "å·¥åİĤ": 8392,
      "éļ¾åħį": 8393,
      "åĲĦä½į": 8394,
      "çºłç¼ł": 8395,
      "31": 8396,
      "5000": 8397,
      "çļĦè¿ĩç¨ĭä¸Ń": 8398,
      "ice": 8399,
      "é»İæ¸ļ": 8400,
      "imp": 8401,
      "ä½łçľĭ": 8402,
      "å¯¹æĬĹ": 8403,
      "ä½ľå®¶": 8404,
      "èĽŁ": 8405,
      "ç»Łé¢Ĩ": 8406,
      "å¤§å°ıçļĦ": 8407,
      "åĪĨæĺİ": 8408,
      "å¸ĪçļĦ": 8409,
      "å½¢æĪĲäºĨ": 8410,
      "é¸¾": 8411,
      "åĽłä¸ºä»ĸ": 8412,
      "æĻºèĥ½å®¶å±ħ": 8413,
      "æĭ¿åĪ°": 8414,
      "èŀįåħ¥": 8415,
      "ä¸ŃåİŁ": 8416,
      "å¹³åİŁ": 8417,
      "æĺİæĺŁ": 8418,
      "ä¼ĺç¾İ": 8419,
      "å¸ĮæľĽè¿ĻäºĽ": 8420,
      "éĻ·éĺ±": 8421,
      "ä¹ĭç¥ŀ": 8422,
      "çİĭåº§": 8423,
      "Ġç§¦åĩ¤éĿĴ": 8424,
      "ä¸Ģå®ļçļĦ": 8425,
      "åĴĮæĥħæĦŁ": 8426,
      "è¿ĻéĩĮæĺ¯": 8427,
      "è´Ńçī©æ¸ħåįķ": 8428,
      "åĵģçīĮçļĦ": 8429,
      "åĩºå£°": 8430,
      "å¹³æ°ĳ": 8431,
      "800": 8432,
      "éĤ£åĦ¿": 8433,
      "é«ĺéĢŁ": 8434,
      "ç¬ĳéĹ®éģĵ": 8435,
      "æŃ¤æ¬¡": 8436,
      "åĽłä¸ºå®ĥä»¬": 8437,
      "å²©çŁ³": 8438,
      "éĻªä¼´": 8439,
      "å¾ĹæĦı": 8440,
      "èµ·ä¼ı": 8441,
      "ç»ıèĲ¥": 8442,
      "æĬĬèĩªå·±": 8443,
      "éļıä¹ĭ": 8444,
      "ç¿»æ»ļ": 8445,
      "éĤ£äºĽäºº": 8446,
      "å³»": 8447,
      "ä¼įå¾·": 8448,
      "å°ıå¿ĥç¿¼ç¿¼": 8449,
      "ĠçŃī": 8450,
      "éĿ¢åŃĲ": 8451,
      "åİ»å¹´": 8452,
      "è¿Ļä¸ªåĲįåŃĹ": 8453,
      "èĬĤçĤ¹": 8454,
      "æłĩè®°": 8455,
      "éĻĨåľ°": 8456,
      "çĹĩçĬ¶": 8457,
      "âĺħ": 8458,
      "å¤©ä½ĵ": 8459,
      "é£ŀèĪŀ": 8460,
      "ä¾ĿéĿł": 8461,
      "çıłç©ĨæľĹçİĽå³°": 8462,
      "ä½ľåĵį": 8463,
      "åĩłæŃ¥": 8464,
      "è®ºåĿĽ": 8465,
      "çļ±èµ·": 8466,
      "åĮºåĿĹéĵ¾": 8467,
      "èµĶ": 8468,
      "èĤª": 8469,
      "è¿½éĢĲ": 8470,
      "Ġåľ°": 8471,
      "å¤ĸåĬł": 8472,
      "æĬĬå®ĥ": 8473,
      "éŃĶéĥ½": 8474,
      "çħ§èĢĢ": 8475,
      "æ¾Ī": 8476,
      "åŃĹæ¯įé¡ºåºı": 8477,
      "æ·±åĪ»çļĦ": 8478,
      "rans": 8479,
      "èĦĤèĤª": 8480,
      "åŃĲå¼Ł": 8481,
      "ç»ĻæĪĳä»¬": 8482,
      "æĢ»éĥ¨": 8483,
      "åıįåĩ»": 8484,
      "ä¸Ģéģį": 8485,
      "ä¸İä½ł": 8486,
      "çľŁç¥ŀ": 8487,
      "çĽ¸éģĩ": 8488,
      "èĩ³æŀģ": 8489,
      "è¿ľåı¤": 8490,
      "é¥®åĵģ": 8491,
      "æ¢ģç¾İå¨Ł": 8492,
      "çħ®çĨŁ": 8493,
      "çĭĻ": 8494,
      "åĲ¬å¾Ĺ": 8495,
      "åĽ¢éķ¿": 8496,
      "æĬ¬æīĭ": 8497,
      "åĩĽ": 8498,
      "æĪĳåıªæĺ¯": 8499,
      "ä½łäºĨ": 8500,
      "ç¥¥": 8501,
      "æĿĢæīĭ": 8502,
      "çº¿ä¸Ĭ": 8503,
      "åĨĻä¸Ģæ®µ": 8504,
      "å¡Ķå°Ķ": 8505,
      "æĦŁæŁĵ": 8506,
      "æĺİæľĪ": 8507,
      "ä¿Ŀéļľ": 8508,
      "å©µ": 8509,
      "åĨ°åĿĹ": 8510,
      "ç¼ĸåĨĻ": 8511,
      "ä»ĸèĩªå·±": 8512,
      "æĽ´æį¢": 8513,
      "æīĵæŃ»": 8514,
      "åħĭæĸ¯": 8515,
      "çĶµå½±çļĦ": 8516,
      "äºĨåı£": 8517,
      "åŃ¦éĹ®": 8518,
      "æķĻæİĪ": 8519,
      "è°¢çĭĹ": 8520,
      "åķĨäºº": 8521,
      "æĿ¾äºĨåı£æ°Ķ": 8522,
      "é¢Ŀå¤´": 8523,
      "çļĦå®ŀåĬĽ": 8524,
      "çļĦæ¶Īæģ¯": 8525,
      "è¯ħ": 8526,
      "æľĪçĲĥ": 8527,
      "ãĢįãĢĤ": 8528,
      "å¾Īå¤ļäºº": 8529,
      "ä¸»è¦ģæĺ¯": 8530,
      "æĢĴåĲ¼": 8531,
      "def": 8532,
      "çº½çº¦å¸Ĥ": 8533,
      "åĩĦ": 8534,
      "éĺĲ": 8535,
      "åĹ½": 8536,
      "è´«éģĵ": 8537,
      "æĺĮ": 8538,
      "éĴ±çļĦ": 8539,
      "æ´Ľæĸ¯": 8540,
      "ä¿±èĬ¦": 8541,
      "èļĬåŃĲ": 8542,
      "ak": 8543,
      "ä¸ªå°ı": 8544,
      "è¿ĺæĥ³": 8545,
      "èĩªçĦ¶æĺ¯": 8546,
      "åĵĪåĪ©": 8547,
      "èĦĳåŃĲ": 8548,
      "è¹¦": 8549,
      "ä¸ĵä¸ļçļĦ": 8550,
      "ä»ĵåºĵ": 8551,
      "è¯ħåĴĴ": 8552,
      "åºĬä¸Ĭ": 8553,
      "åĴ³åĹ½": 8554,
      "æ¸´æľĽ": 8555,
      "Ġä¸ºä»Ģä¹Ī": 8556,
      "ĠåĽŀçŃĶéĹ®é¢ĺ": 8557,
      "ç¥ł": 8558,
      "æĹłè§Ĩ": 8559,
      "é¡¿äºĨ": 8560,
      "æī«è¿ĩ": 8561,
      "ust": 8562,
      "è©": 8563,
      "è¿Ļé¢Ĺ": 8564,
      "éģĵåıĭ": 8565,
      "æ¯Ķåĸ»": 8566,
      "ä½İæ²ī": 8567,
      "ä¸ĵå®¶": 8568,
      "éĺ³åħīæĺİåªļ": 8569,
      "å¼ºè°ĥäºĨ": 8570,
      "éĻ¨èĲ½": 8571,
      "çļĦä»ĸ": 8572,
      "åĪ°æľĢåĲİ": 8573,
      "èµĲ": 8574,
      "åı£çļĦ": 8575,
      "è¯·æ³¨æĦı": 8576,
      "æŃ»åľ¨": 8577,
      "åĳ¨æľŁ": 8578,
      "æ¸©åĴĮ": 8579,
      "å®ĹéĹ¨": 8580,
      "æ±ĩèģļ": 8581,
      "ä¿±èĬ¦æ´²": 8582,
      "ĠéĻĨ": 8583,
      "çļĦä½ľçĶ¨": 8584,
      "åĵ®": 8585,
      "é«ĺçº§": 8586,
      "æ·±åĳ¼åĲ¸": 8587,
      "æĿİèĢģå¤´": 8588,
      "å¦ĤæŃ¤ä¸ĢæĿ¥": 8589,
      "çªĹå¤ĸ": 8590,
      "ä¸įå¥½æĦıæĢĿ": 8591,
      "åģ¶æķ°": 8592,
      "ç±»ä¼¼äºİ": 8593,
      "ä¸įæĦ¿": 8594,
      "å¤©æīį": 8595,
      "è¿ĺæĺ¯è¦ģ": 8596,
      "çĻ¾å§ĵ": 8597,
      "å®ĺæĸ¹": 8598,
      "all": 8599,
      "é»ĳæļĹä¸Ń": 8600,
      "ï¼ļ\",": 8601,
      "Ġex": 8602,
      "å®ıä¼Ł": 8603,
      "å¾Ĺä¸Ĭ": 8604,
      "æ¶©": 8605,
      "ç²ĺ": 8606,
      "çº¿ä»»åĬ¡": 8607,
      "Ġä¸Ģéģĵ": 8608,
      "æĤ¨åı¯ä»¥åľ¨": 8609,
      "çĽİåı¸": 8610,
      "çļĦæııè¿°": 8611,
      "ä¸ĢæĪĺ": 8612,
      "è¶Ĭæĺ¯": 8613,
      "è·ĳåİ»": 8614,
      "æ±Łå®ģ": 8615,
      "èĿī": 8616,
      "ç¥ŀç»ıç½ĳç»ľ": 8617,
      "ĠæıĲä¾Ľ": 8618,
      "éļ¶": 8619,
      "æľºåħ³": 8620,
      "é©°": 8621,
      "åĸľæĤ¦": 8622,
      "çıĬ": 8623,
      "èĦĳæµ·ä¸Ń": 8624,
      "ç»¿èī²çļĦ": 8625,
      "æµ®çİ°åĩº": 8626,
      "çļĦæīĭæ®µ": 8627,
      "Ġä¸ĭä¸ĢåĪ»": 8628,
      "åı¯ä»¥è¯´": 8629,
      "èĥľè´Ł": 8630,
      "é¢ĳçİĩ": 8631,
      "åĪĽéĢłä¸Ģä¸ª": 8632,
      "ä¸İä¹ĭ": 8633,
      "èĭıåĶĲ": 8634,
      "åĲĳäºĨ": 8635,
      "åľºæīĢ": 8636,
      "åĳ½çļĦ": 8637,
      "è¡£çī©": 8638,
      "éĤ£å¦Ĥæŀľ": 8639,
      "åĲĳä¸Ĭ": 8640,
      "æī¾ä¸ª": 8641,
      "éĺ´å½±": 8642,
      "è¢Ńåĩ»": 8643,
      "å¼©": 8644,
      "åĨĽçļĦ": 8645,
      "åı·çļĦ": 8646,
      "åıĳå±ķçļĦ": 8647,
      "ĠéĻ¤äºĨ": 8648,
      "æĪĳè¯´": 8649,
      "åĲ¬çļĦ": 8650,
      "æī¾ä¸įåĪ°": 8651,
      "ä¸ĵå±ŀ": 8652,
      "åªŀ": 8653,
      "æ¬ºè´Ł": 8654,
      "Ġå·´åĵĪ": 8655,
      "å¯¹åºĶçļĦ": 8656,
      "ä»įæĺ¯": 8657,
      "æ¸łéģĵ": 8658,
      "åı¯ä»¥å°Ŀè¯ķ": 8659,
      "æ¸£": 8660,
      "æīĵåĩ»": 8661,
      "åıĺçļĦ": 8662,
      "çªį": 8663,
      "å¹²ä»Ģä¹Ī": 8664,
      "èİ«åĲį": 8665,
      "éĢģåĪ°": 8666,
      "èĲ¥éĶĢ": 8667,
      "è¿ľå¤ĦçļĦ": 8668,
      "æ°´åĴĮ": 8669,
      "æĢİä¹ĪäºĨ": 8670,
      "æ²īæĢĿ": 8671,
      "ç¤¾ä¼ļçļĦ": 8672,
      "æ§Ľ": 8673,
      "èģĮä¸ļéĢīæīĭ": 8674,
      "ç»ĵæĿŁäºĨ": 8675,
      "ç¾¡æħķ": 8676,
      "ç§ĳå¹»å°ıè¯´": 8677,
      "æīĢéľĢçļĦ": 8678,
      "Ġå¾Ĳ": 8679,
      "åĲİæŀľ": 8680,
      "å¾Īå®¹æĺĵ": 8681,
      "ä¸īå¤©": 8682,
      "æ²īåĲŁ": 8683,
      "æĳĦåħ¥": 8684,
      "åµĮ": 8685,
      ".âĢĿ": 8686,
      "Ġçĥ¤": 8687,
      "è¾©": 8688,
      "çħ§çīĩ": 8689,
      "çĶ·çĶŁ": 8690,
      "ç£ķ": 8691,
      "å©ļç¤¼": 8692,
      "sum": 8693,
      "ĠåĬłåħ¥": 8694,
      "ç»°": 8695,
      "ï¼ģãĢį": 8696,
      "ç¼Ģ": 8697,
      "åĪ©çļĦ": 8698,
      "å¤«åŃĲ": 8699,
      "åĴĮæĮĳæĪĺ": 8700,
      "æīĭä¸ĭ": 8701,
      "çªľ": 8702,
      "éĨĩ": 8703,
      "ĠæĿİèĢģå¤´": 8704,
      "äºĨçĤ¹": 8705,
      "åĩºè¡Į": 8706,
      "å®ļä½į": 8707,
      "è¾¾åĪ°äºĨ": 8708,
      "ç¹ģèį£": 8709,
      "æŀ«åı¶": 8710,
      "oy": 8711,
      "å°±å¼Ģå§ĭ": 8712,
      "è¿ĺæľª": 8713,
      "çĤ¹çĩĥ": 8714,
      "æīĵæĸŃ": 8715,
      "éĴ©": 8716,
      "æĶ¾ç½®": 8717,
      "æĮĩå®ļ": 8718,
      "æ±ŁåįĹ": 8719,
      "Ġflo": 8720,
      "é£ŀåįĩå¢ĥ": 8721,
      "å¤§åĵ¥": 8722,
      "çķĮåŁŁ": 8723,
      "æĹ¶éĹ´çļĦ": 8724,
      "çĮİäºº": 8725,
      "å°ļæľª": 8726,
      "å¸ĿåĽ½çļĦ": 8727,
      "ng": 8728,
      "çļĦè¯Ńæ°Ķ": 8729,
      "å¸ľ": 8730,
      "æ·ĺ": 8731,
      "æŀĦå»º": 8732,
      "çļĦéĤ£ç§į": 8733,
      "èħ°éĹ´": 8734,
      "åıĳçİ°èĩªå·±": 8735,
      "åĩłä¹İæĺ¯": 8736,
      "æķ°åŃ¦é¢ĺ": 8737,
      "çĸĨ": 8738,
      "è®¢åįķ": 8739,
      "æľīæķĪçļĦ": 8740,
      "éĵłçĶ²": 8741,
      "ob": 8742,
      "ĠåįĹ": 8743,
      "å¾Īå¼º": 8744,
      "èµ°æĿ¥": 8745,
      "çŀħ": 8746,
      "æĮĳéĢī": 8747,
      "è¡Ĺä¸Ĭ": 8748,
      "æĮ½": 8749,
      "å¹¶å°Ĩåħ¶": 8750,
      "çģµåĿĩ": 8751,
      "å·´å·´": 8752,
      "çİ¯å¢ĥçļĦ": 8753,
      "æ¶Īå¤±åľ¨": 8754,
      "ç¬ĳäºĨèµ·æĿ¥": 8755,
      "æĺ¯å¯¹": 8756,
      "ä¸įå°ı": 8757,
      "æķŀ": 8758,
      "é»ı": 8759,
      "åħ¬æĸ¤": 8760,
      "èµ°å»Ĭ": 8761,
      "å¸¦é¢Ĩ": 8762,
      "çº¢æŁ¿": 8763,
      "ä¸½å¡Ķ": 8764,
      "è¿Ŀè§ĦèĢħ": 8765,
      "rand": 8766,
      "æĪĳæľī": 8767,
      "åı¯åľ¨": 8768,
      "ä¸ĭå±±": 8769,
      "æµ·è¾¹": 8770,
      "çĻ¾ç±³": 8771,
      "ç§¯ç´¯": 8772,
      "å®¿èĪį": 8773,
      "ä¸Ģå¹ħ": 8774,
      "è¦ģä¸įè¦ģ": 8775,
      "æĿĢæŃ»": 8776,
      "Ġä¸Ģå£°": 8777,
      "ç»§æī¿": 8778,
      "æĸ½æ³ķ": 8779,
      "row": 8780,
      "åĹĵéŁ³": 8781,
      "æĹ¶åĪĨ": 8782,
      "å¢ĵ": 8783,
      "åĲĪåĲĮ": 8784,
      "å¯ĴçĥŁ": 8785,
      "æľĢå°ĳ": 8786,
      "å¤ĸå¥Ĺ": 8787,
      "çłĤ": 8788,
      "è°ĥèĬĤ": 8789,
      "æļĹç¤º": 8790,
      "å·¨é¾Ļ": 8791,
      "æ½ľåľ¨": 8792,
      "éĹ²èģĬ": 8793,
      "ä¸įåĸľæ¬¢": 8794,
      "è¿Ļåı¥": 8795,
      "ç»ļ": 8796,
      "æľµæĭī": 8797,
      "éľ¸ä¸»": 8798,
      "æĤłæĤł": 8799,
      "æī®æ¼Ķ": 8800,
      "Ġè¿ĺæľī": 8801,
      "æľīæľº": 8802,
      "æĿ¥å®ŀçİ°": 8803,
      "å¥½æŃ¹": 8804,
      "è¯·ä¸ºæĪĳ": 8805,
      "é¡¿äºĨé¡¿": 8806,
      "æĪĳä¸įèĥ½": 8807,
      "æĢİæł·çļĦ": 8808,
      "èµ¢äºĨ": 8809,
      "åºŀå¤§": 8810,
      "çļĦæīĢæľī": 8811,
      "ä¸Ģä¸ªæľĪ": 8812,
      "åĪĨä¹ĭä¸Ģ": 8813,
      "æŀľå®ŀ": 8814,
      "åįĥåħĭ": 8815,
      "åĹ£": 8816,
      "æĽ¹æ¸Ĭ": 8817,
      "ç§©åºı": 8818,
      "Ġå¸ĥå¸ĥæ±ª": 8819,
      "éĤ£åıĮ": 8820,
      "äº²çľ¼": 8821,
      "æ³¢çī¹": 8822,
      "æľįåĬ¡åĳĺ": 8823,
      "ä¼¸åĩº": 8824,
      "åı¯è°ĵ": 8825,
      "å¹¶æĹł": 8826,
      "çķĻä¸ĭäºĨ": 8827,
      "å¯ĴçĥŁæŁĶ": 8828,
      "çļĦéĺ³åħī": 8829,
      "ç«Ń": 8830,
      "æľ¬å°±": 8831,
      "ä»¥ä¸ĭæĸĩæľ¬": 8832,
      "æĹģçļĦ": 8833,
      "æĺİæĺ¾çļĦ": 8834,
      "çĶŁçĶŁ": 8835,
      "æľĢå°ı": 8836,
      "æĺİå¤©çļĦ": 8837,
      "åįķçº¯": 8838,
      "ç²¾ç¡®": 8839,
      "æ³¨å®ļ": 8840,
      "åģľçķĻ": 8841,
      "é¢Ŀå¤ĸ": 8842,
      "åģıåģı": 8843,
      "ãĤ": 8844,
      "Ġk": 8845,
      "çļĦæł¸å¿ĥ": 8846,
      "ä»¥èĩ³äºİ": 8847,
      "çĻ½äºĳ": 8848,
      "èĴ²": 8849,
      "ä¸¾åĬŀ": 8850,
      "æĪĳä¸įçŁ¥éģĵ": 8851,
      "å°±å¥½": 8852,
      "çľ¼éĩĮ": 8853,
      "æŃ»æŃ»": 8854,
      "å®Ŀå®Ŀ": 8855,
      "èĥĮåĲİçļĦ": 8856,
      "çķ¥å¾®": 8857,
      "æĬµæĬĹ": 8858,
      "åħ¬åĽŃéĩĮ": 8859,
      "ä½łå¯¹": 8860,
      "æ¸Ķ": 8861,
      "ä¸īæ¬¡": 8862,
      "åį´ä¹Ł": 8863,
      "ä¼ĺéĽħ": 8864,
      "èĵĿéĽ¨": 8865,
      "çĭĤé£İ": 8866,
      "éĵºåŃĲ": 8867,
      "ç±»ä¼¼çļĦ": 8868,
      "æķ°ç»Ħ": 8869,
      "é«ĺé«ĺ": 8870,
      "èĢĥè¯ķ": 8871,
      "æĥĬäºº": 8872,
      "è¿½è¸ª": 8873,
      "ard": 8874,
      "ph": 8875,
      "ĠæĽ´": 8876,
      "åĳĲ": 8877,
      "åĵªæľī": 8878,
      "åĩ»è´¥": 8879,
      "ç²¾èĭ±": 8880,
      "åħĭæľį": 8881,
      "åĳĬè¯īä½ł": 8882,
      "åĪ°å¤Ħ": 8883,
      "å£°æľĽ": 8884,
      "éĽĨåĲĪ": 8885,
      "æľ¨æĺŁ": 8886,
      "ä¸½èİİ": 8887,
      "è©¹": 8888,
      "å¿ĥå£°": 8889,
      "çħĮ": 8890,
      "æĿ¯åŃĲ": 8891,
      "æĪ·å¤ĸæ´»åĬ¨": 8892,
      "å½±åĥı": 8893,
      "åįģä¸Ģ": 8894,
      "æ¢Ń": 8895,
      "æĻ¯è§Ĥ": 8896,
      "ä»ĭç»įäºĨ": 8897,
      "å¤ļäºĳ": 8898,
      "éĩĮè¾¹": 8899,
      "å®ļçĲĨ": 8900,
      "æĪĳä»¬åľ¨": 8901,
      "çĥŃéĩı": 8902,
      "åķĥ": 8903,
      "çľŁçļĦæĺ¯": 8904,
      "åģĩçļĦ": 8905,
      "åĪĨæŀĲåĴĮ": 8906,
      "å°ºå¯¸": 8907,
      "é³Ħ": 8908,
      "æĸĲ": 8909,
      "èĢ»": 8910,
      "è¾½": 8911,
      "è¾Ĳ": 8912,
      "ç¬ĳçľ¯": 8913,
      "çĻ½å¤©": 8914,
      "åĨ³å¿ĥ": 8915,
      "çłĶåıĳ": 8916,
      "é¹¤": 8917,
      "32": 8918,
      "åı¯ä»¥åİ»": 8919,
      "å°ıéĻĮ": 8920,
      "ä¼łæĿ¥çļĦ": 8921,
      "å¼Ĥç§į": 8922,
      "å®ŀéªĮå®¤": 8923,
      "å§¬çĳ¶": 8924,
      "çļĦä½¿çĶ¨": 8925,
      "æĪļ": 8926,
      "ï¼ŁãĢį": 8927,
      "èĢĮåĲİ": 8928,
      "å¤ªéĺ³èĥ½": 8929,
      "ĠåįĬ": 8930,
      "çļĦè¯Ńè¨Ģ": 8931,
      "çļĦåĲ«ä¹ī": 8932,
      "åħīè¾ī": 8933,
      "è½¬åĮĸ": 8934,
      "ould": 8935,
      "æĸ¹ç¨ĭå¼ı": 8936,
      "éĿ¢æĹł": 8937,
      "éĩĮéĿ¢çļĦ": 8938,
      "éķ¿ä¹ħ": 8939,
      "è¿Ļä¸ªè¯į": 8940,
      "åįģä¸ī": 8941,
      "æŀģèĩ´": 8942,
      "åİĦè¿Ĳ": 8943,
      "è¿ĻæĶ¯": 8944,
      "åĴĮäºº": 8945,
      "å¤§å¤§": 8946,
      "åįģåħ«": 8947,
      "åĶī": 8948,
      "åŀĴ": 8949,
      "åĨĽäºĭ": 8950,
      "åĽĽåĵģ": 8951,
      "è§Ĥåªŀ": 8952,
      "è§ĳ": 8953,
      "åĩºèī²çļĦ": 8954,
      "æĬĦ": 8955,
      "æĥ³æĿ¥": 8956,
      "æĹłè¯Ń": 8957,
      "è¯¥æĸĩæľ¬": 8958,
      "æ±Ĥè§£": 8959,
      "Ġse": 8960,
      "èĻ«å·¢": 8961,
      "æĴĴä¸Ĭ": 8962,
      "ç¢°æĴŀ": 8963,
      "éĻĪè¿°åı¥": 8964,
      "åĩºåĶ®": 8965,
      "æĺ¯ä¸Ģåıª": 8966,
      "ä¿ĿåŃĺ": 8967,
      "åŃ¦éĻ¢çļĦ": 8968,
      "éŀĭåŃĲ": 8969,
      "ä¸ªæľĪ": 8970,
      "çĿĢä»ĸ": 8971,
      "æ³ķæľ¯": 8972,
      "æĪĳä»¬ä¼ļ": 8973,
      "åı¶åŃĲ": 8974,
      "æĭīæĸ¯": 8975,
      "éģĹäº§": 8976,
      "æĥ®": 8977,
      "å¥½ä¸ľè¥¿": 8978,
      "ä¸ĢäºĽäºº": 8979,
      "çĤ¸å¼¹": 8980,
      "è¾¹éķ¿": 8981,
      "æ¯ķç«Łæĺ¯": 8982,
      "çĩĥæĸĻ": 8983,
      "Ġæİ¨èįĲ": 8984,
      "Ġest": 8985,
      "ĠåĴĶ": 8986,
      "åĴĨ": 8987,
      "å±¥": 8988,
      "æįĤ": 8989,
      "ä¸»èıľ": 8990,
      "çĲĨå¿µ": 8991,
      "æ¶Ł": 8992,
      "éĻĨç»Ń": 8993,
      "èĤĮèĤ¤": 8994,
      "åĲ¨": 8995,
      "è¯Ī": 8996,
      "åıªè§īå¾Ĺ": 8997,
      "åº§æ¤ħ": 8998,
      "å»¶ä¼¸": 8999,
      "æĪ³": 9000,
      "äºĨå¤ļå°ĳ": 9001,
      "å¨ĥ": 9002,
      "ç²¾åĬĽ": 9003,
      "åĺ´åĶĩ": 9004,
      "åĪ¹éĤ£": 9005,
      "çļĦå¼ºèĢħ": 9006,
      "æµ·é²ľ": 9007,
      "ä»Ĭå¤©å¤©æ°Ķ": 9008,
      "çĻ½çİīäº¬": 9009,
      "çļĦå·¥ä½ľ": 9010,
      "ä»ĸä¼ļ": 9011,
      "å¯¹åħ¶": 9012,
      "é£İéĽ¨": 9013,
      "è½¬è¿ĩå¤´": 9014,
      "åĽŀçŃĶè¿Ļä¸ªéĹ®é¢ĺ": 9015,
      "åĸĦèī¯": 9016,
      "åĪ°åºķæĺ¯": 9017,
      "åĩĿéĩį": 9018,
      "çī¹åĪ«çļĦ": 9019,
      "å®Īå¤ľäºº": 9020,
      "ä¸Ģç³»åĪĹ": 9021,
      "ä»ĸåĴĮ": 9022,
      "æĪ¿éĹ¨": 9023,
      "é¢Ħè®¡": 9024,
      "éĢģç»Ļ": 9025,
      "éĵģéªĳ": 9026,
      "éĺ²çº¿": 9027,
      "èĤļåŃĲ": 9028,
      "æł½": 9029,
      "çŃīéĹ®é¢ĺ": 9030,
      "å¸Ŀå°Ĭ": 9031,
      "ath": 9032,
      "æĤ¬çĸĳ": 9033,
      "ç²ĴåŃĲ": 9034,
      "å¿Įæĥ®": 9035,
      "è´¯éĢļ": 9036,
      "æ´¥": 9037,
      "äºĶäºº": 9038,
      "ç«ĭæĸ¹": 9039,
      "ä¸Ģèµ·åİ»": 9040,
      "æĹħç¨ĭ": 9041,
      "è¿Ľåħ¥äºĨ": 9042,
      "åıĳçĶŁäºĨä»Ģä¹Ī": 9043,
      "ä¸įæľ½": 9044,
      "å¥¢": 9045,
      "æĪĳéĥ½": 9046,
      "çĽ¸å¤Ħ": 9047,
      "çİīçĴŀ": 9048,
      "ä¸¥æł¼": 9049,
      "çļĦå¿ĥæĥħ": 9050,
      "Ġåı¶ä¿®": 9051,
      "ĠèĲ§å®¹é±¼": 9052,
      "ä½łèĩªå·±": 9053,
      "éĤ£æĬĬ": 9054,
      "çĶŁåĬ¨": 9055,
      "åŁİæ±ł": 9056,
      "éĩĳèī²çļĦ": 9057,
      "çĴĢ": 9058,
      "éĺ´æ²ī": 9059,
      "ç¾½æ¯Ľ": 9060,
      "æĳ©æĵ¦": 9061,
      "ï¼ļ\"))": 9062,
      "åĮħåŃĲåħ¥ä¾µ": 9063,
      "æŁļæ¢¨": 9064,
      "åĴĨåĵ®": 9065,
      "ä¸Ģä¼ļåĦ¿": 9066,
      "æĥħå¢ĥ": 9067,
      "å½ĵæĪĲ": 9068,
      "ä»¥ä¸ĭæĺ¯ä¸Ģä¸ª": 9069,
      "å¹½é»ĺ": 9070,
      "æĮ¡ä½ı": 9071,
      "Ġå®ĥ": 9072,
      "å¤©ä½¿": 9073,
      "è¢«èªīä¸º": 9074,
      "å»ī": 9075,
      "åĲĦåľ°": 9076,
      "åı·éģ¿éļ¾æīĢ": 9077,
      "æĬ¤çĽ¾": 9078,
      "æĶ¯æı´": 9079,
      "åħįçĸ«": 9080,
      "è´¨éĩıåĴĮ": 9081,
      "ä»¥ä¸ĭæĺ¯ä¸ĢäºĽ": 9082,
      "åĩĨç¡®åľ°": 9083,
      "å¬ī": 9084,
      "çĴĢçĴ¨": 9085,
      "èĢĮåıĪ": 9086,
      "æĪĺéĺŁçļĦ": 9087,
      "ç²¾éĶĲ": 9088,
      "ãĢĭï¼Ī": 9089,
      "å¯ĨéĽĨ": 9090,
      "åĲĽä¸»": 9091,
      "çŀ¥äºĨçľ¼": 9092,
      "çŃĽéĢī": 9093,
      "æĥ«": 9094,
      "æıĲèµ·": 9095,
      "å±±æ²³": 9096,
      "èĻı": 9097,
      "å®¢åİħ": 9098,
      "æĳ¸çĿĢ": 9099,
      "èī¾é»ĺ": 9100,
      "æĸĩåŃ¦ä½ľåĵģ": 9101,
      "å¥½äºº": 9102,
      "æµĩ": 9103,
      "åŃ¦çļĦ": 9104,
      "åħīæĺİ": 9105,
      "åģļäºĭ": 9106,
      "ä½ľä¸ºAIè¯Ńè¨Ģæ¨¡åŀĭ": 9107,
      "Ġsum": 9108,
      "æ¿Ģåıĳ": 9109,
      "å½ĵä¸ĭ": 9110,
      "çªģåĩº": 9111,
      "æĿİæ§Ĳ": 9112,
      "åİĭç¼©": 9113,
      "ä¸ŃåľŁ": 9114,
      "å½ĵæĪĳ": 9115,
      "æĹ¥éĩĮ": 9116,
      "æ¢µ": 9117,
      "çļĦäºĭå®ŀ": 9118,
      "åħ¨çĲĥåıĺæļĸ": 9119,
      "åīįæĻ¯": 9120,
      "ä¸ĥæĺŁ": 9121,
      "åĮĹä¿±èĬ¦æ´²": 9122,
      "çĥŃéĹ¨": 9123,
      "æĶ¯åĩº": 9124,
      "çļĦé«ĺåº¦": 9125,
      "ä¸ĬåįĪ": 9126,
      "ç¬ĳåĳµåĳµ": 9127,
      "åĶ¾": 9128,
      "åı¦ä¸Ģè¾¹": 9129,
      "çĶ·å¥³": 9130,
      "è¿İæİ¥": 9131,
      "åı¤èĢģçļĦ": 9132,
      "èĳ«èĬ¦": 9133,
      "95": 9134,
      "AP": 9135,
      "ub": 9136,
      "ä¸Ĭè¿°": 9137,
      "æ²Ľ": 9138,
      "ç¬¨": 9139,
      "ç©¹": 9140,
      "åĸ§": 9141,
      "äºĨä¸Ģåı£": 9142,
      "Ġas": 9143,
      "èº«ä½ĵçļĦ": 9144,
      "åİŁåĽłæĺ¯": 9145,
      "çļĦå¼Ģåı£": 9146,
      "ä¸Ģä»¶äºĭ": 9147,
      "äºĨä¸ĢæĿ¡": 9148,
      "æĺ¥èĬĤ": 9149,
      "Ġby": 9150,
      "æĤĦçĦ¶": 9151,
      "èī¾é»ĺä¸Ŀ": 9152,
      "çļĦèĦ¸ä¸Ĭ": 9153,
      "å½ĵä»ĸ": 9154,
      "çī©ä½ĵçļĦ": 9155,
      "åĨįçĶŁ": 9156,
      "èĩ³é«ĺ": 9157,
      "åĽĽæĸ¹": 9158,
      "è¡Ģæ¶²": 9159,
      "æĥĬåı¹": 9160,
      "éĦ": 9161,
      "çļĦå¥³åŃĲ": 9162,
      "åħ¶å®ĥ": 9163,
      "è¢«è®¤ä¸ºæĺ¯": 9164,
      "å®Įé¢ľ": 9165,
      "å¤ªéĺ³çļĦ": 9166,
      "éģĩä¸Ĭ": 9167,
      "æĴŃæĶ¾": 9168,
      "çģŃæ³ķèĢħ": 9169,
      "çĽĶ": 9170,
      "å¸Ĥä¸Ńå¿ĥ": 9171,
      "è¿Ļå¯¹": 9172,
      "åĵĴ": 9173,
      "èŁ¹": 9174,
      "æĪ®": 9175,
      "åĨµä¸Ķ": 9176,
      "çº¦ç¿°": 9177,
      "èĤīç±»": 9178,
      "èĪĴæľį": 9179,
      "çĽĳæİ§": 9180,
      "ç¥ŀéĢļ": 9181,
      "åĪĺç¾¡éĺ³": 9182,
      "ä»įæĹ§": 9183,
      "å¤ļåįĬ": 9184,
      "æľĢéĩįè¦ģçļĦ": 9185,
      "å¸Īå¸Ī": 9186,
      "æĬ¤åį«": 9187,
      "æĪĳè¿Ļ": 9188,
      "åı¯ä»ĸ": 9189,
      "èº«çļĦ": 9190,
      "ä½įçļĦ": 9191,
      "å®Įæ¯ķ": 9192,
      "å¸®çĿĢ": 9193,
      "é¦Ļåĳ³": 9194,
      "å¸®åĬ©æĤ¨": 9195,
      "éĺ¿èī¯": 9196,
      "åĩ¤æŁĶ": 9197,
      "æ¯ķä¸ļ": 9198,
      "è¢ŃæĿ¥": 9199,
      "çĶµè§Ĩåī§": 9200,
      "ä¸ĸåŃĲæ®¿ä¸ĭ": 9201,
      "John": 9202,
      "éľĢè¦ģæĪĳ": 9203,
      "åĮĸåĲĪ": 9204,
      "è¿ĩåİ»äºĨ": 9205,
      "Ġma": 9206,
      "æī¿æĭħ": 9207,
      "Ġyour": 9208,
      "Ġç¼ĸåĨĻä¸Ģä¸ª": 9209,
      "my": 9210,
      "çļĦéģĵ": 9211,
      "çļĦä¸ī": 9212,
      "æĿ¥ä¸įåıĬ": 9213,
      "åľ°ä¸ĬçļĦ": 9214,
      "åıĳå°Ħ": 9215,
      "æıĲå°Ķ": 9216,
      "é»ĳæĹĹ": 9217,
      "æĺ¯ä¸Ģåº§": 9218,
      "è¶Ĭåıĳ": 9219,
      "ç½®ä¿¡": 9220,
      "é¦Ļçģ«": 9221,
      "èĻļå½±": 9222,
      "çļĦç¬ĳå®¹": 9223,
      "âĢĿï¼ĮâĢľ": 9224,
      "éĤ£åľº": 9225,
      "æĥ³åĬŀæ³ķ": 9226,
      "æĥħçļĦ": 9227,
      "çĥĺ": 9228,
      "æ·±è¿ľ": 9229,
      "é¢ĦæĸĻ": 9230,
      "é¦Ļèįī": 9231,
      "èĵĿæ²³": 9232,
      "ick": 9233,
      "ive": 9234,
      "çĭŀ": 9235,
      "æŁı": 9236,
      "è·¯çļĦ": 9237,
      "æĢ»ä½ĵ": 9238,
      "æĹ¶éĹ´åĴĮ": 9239,
      "ä»Ĭå¤©æĺ¯": 9240,
      "é¸£å£°": 9241,
      "è¿¦èĵĿ": 9242,
      "åĪĨè§£": 9243,
      "æŃ¥æŀª": 9244,
      "çİ¯å¢ĥä¿ĿæĬ¤": 9245,
      "å¢Ļä¸Ĭ": 9246,
      "è¯·æĤ¨": 9247,
      "çĽ¸çŃī": 9248,
      "äºĨä¸Ģåľº": 9249,
      "åıĪéģĵ": 9250,
      "åıĹåĪ°äºĨ": 9251,
      "å®«æ®¿": 9252,
      "åĲ±": 9253,
      "çĥĻ": 9254,
      "åħ¶ä¸Ńä¸Ģä¸ª": 9255,
      "èģļå±ħ": 9256,
      "éľĩåĬ¨": 9257,
      "åıĪæĺ¯ä¸Ģ": 9258,
      "åıįå°Ħ": 9259,
      "åĸľæ¬¢åĲĥ": 9260,
      "çĶŁåĳ½åĬĽ": 9261,
      "æĪĳæĥ³äºĨè§£": 9262,
      "åĨľä¸ļ": 9263,
      "äººçĶŁçļĦ": 9264,
      "å½ĵä»Ĭ": 9265,
      "äºĭäºĨ": 9266,
      "ä»İä¸į": 9267,
      "åħ±é¸£": 9268,
      "çļĦäººçĶŁ": 9269,
      "ä¹ĭåĲİçļĦ": 9270,
      "å®¢æłĪ": 9271,
      "ä¼¸åĩºæīĭ": 9272,
      "åĩŃç©º": 9273,
      "Ġè½°éļĨ": 9274,
      "çīº": 9275,
      "çĤ¹çĤ¹": 9276,
      "èģĺ": 9277,
      "æµ·æ°´": 9278,
      "ä¹Łæ²¡ä»Ģä¹Ī": 9279,
      "åĶ®ä»·": 9280,
      "åĨĴéĻ©åĽ¢": 9281,
      "æĹ¶ç©ºä¹ĭåĬĽ": 9282,
      "èĲį": 9283,
      "æĢ§åĪ«": 9284,
      "å½¢åĬ¿": 9285,
      "ç¢¾": 9286,
      "æ±īåł¡": 9287,
      "ä¼Ļä¼´": 9288,
      "çĶ·æĢ§": 9289,
      "çĪ±æĥħçļĦ": 9290,
      "éľĢæ±ĤåĴĮ": 9291,
      "çľ¼ä¸ĭçļĦ": 9292,
      "å¸¸çĶ¨çļĦ": 9293,
      "æĬĬè¿Ļ": 9294,
      "é²¨": 9295,
      "ç©¶ç«Ł": 9296,
      "éħ±æ²¹": 9297,
      "çĲ¢": 9298,
      "å¹¶è§£éĩĬ": 9299,
      "return": 9300,
      "éķĩåİĭ": 9301,
      "åĮ¹éħį": 9302,
      "apple": 9303,
      "çīºçī²": 9304,
      "æĭĩ": 9305,
      "çĭŃ": 9306,
      "çĲĨæĻº": 9307,
      "æĢ§åĳ½": 9308,
      "åĪ¶çļĦ": 9309,
      "åıĮèĩĤ": 9310,
      "å¼Łå¼Ł": 9311,
      "å·į": 9312,
      "åĪĨæķ°": 9313,
      "éĩĳé»Ħèī²": 9314,
      "æĶ»åĬ¿": 9315,
      "å¢ŀçĽĬ": 9316,
      "èĤ¡ç¥¨": 9317,
      "å¾ĦçĽ´": 9318,
      "ä¸ªäººçļĦ": 9319,
      "ä¸ľäº¬": 9320,
      "Ġå°±åľ¨è¿ĻæĹ¶": 9321,
      "Ġäºİæĺ¯": 9322,
      "å¤§å¹ħåº¦": 9323,
      "æĦŁåĴĮ": 9324,
      "äºĨä¸Ģéģį": 9325,
      "è¿ĻäºĽä¸ľè¥¿": 9326,
      "æ¸ħéĨĴ": 9327,
      "äºĶçĻ¾": 9328,
      "å¼Ģå§ĭäºĨ": 9329,
      "éģĹè¿¹": 9330,
      "æ²Ļæ»©ä¸Ĭ": 9331,
      "com": 9332,
      "ä¸Ģé¡¹": 9333,
      "çŃīæĸ¹éĿ¢çļĦ": 9334,
      "âĢ¦âĢ¦\"": 9335,
      "æīĢå¾Ĺ": 9336,
      "ä¸İæĪĳ": 9337,
      "çĻ½è¡£": 9338,
      "æ¯ıå°ıæĹ¶": 9339,
      "Ġè¿Ļä½į": 9340,
      "ç«ĭæģĴ": 9341,
      "è¯ķçĿĢ": 9342,
      "101": 9343,
      "æ·¡çĦ¶": 9344,
      "ç¨įçŃī": 9345,
      "é»Ħå°ĳå¤©": 9346,
      "å¤ļå½©": 9347,
      "æĿŁç¼ļ": 9348,
      "æĸĩæĺİçļĦ": 9349,
      "å¥Īä½ķ": 9350,
      "ä¸įå¼Ģ": 9351,
      "ä¸ŃåįĪ": 9352,
      "å¦Ħ": 9353,
      "å¥¹æĺ¯": 9354,
      "éħ¬": 9355,
      "é»Ħçĵľ": 9356,
      "ä¸½çļĦ": 9357,
      "çģµéŃĤç»ĵæĻ¶": 9358,
      "result": 9359,
      "ud": 9360,
      "ä¸įç¡®å®ļ": 9361,
      "ä¹Łå¤ª": 9362,
      "æĹłåı¯": 9363,
      "äºĨä¸Ģåı£æ°Ķ": 9364,
      "å®Įç¾İçļĦ": 9365,
      "ä¸Ģæł·çļĦ": 9366,
      "çĥ¤çĽĺ": 9367,
      "æĮĩæĮ¥å®ĺ": 9368,
      "éĿ¢æĹłè¡¨æĥħ": 9369,
      "ä¸¸": 9370,
      "æ²¡æ³ķ": 9371,
      "å§»": 9372,
      "éĩĳé»Ħ": 9373,
      "ä¹Ĳè¶£": 9374,
      "æĢİä¹Īè¯´": 9375,
      "èĥ½å¤Łåľ¨": 9376,
      "åħ±äº«": 9377,
      "ä¸įå°ĳäºº": 9378,
      "åį·è½´": 9379,
      "æ©ĻåŃĲ": 9380,
      "æĭĩæĮĩ": 9381,
      "éĤ£éģĵ": 9382,
      "æĹ¶æľº": 9383,
      "ä»Ļå¸Ī": 9384,
      "åŃ©åŃĲçļĦ": 9385,
      "éª¨å¤´": 9386,
      "ity": 9387,
[...]
